<unk>	0
<s>	0
</s>	0
▁के	-3.32431
।	-3.33189
▁में	-3.6038
▁है	-3.65364
,	-3.65659
▁की	-4.06883
▁	-4.07239
▁और	-4.2234
▁से	-4.27267
▁का	-4.27784
▁को	-4.50549
▁हैं	-4.68281
▁एक	-4.75027
▁पर	-4.9933
.	-5.08924
-	-5.14397
▁ने	-5.29989
▁भी	-5.302
▁किया	-5.30904
▁·	-5.41131
▁यह	-5.4255
▁था	-5.45563
▁लिए	-5.45604
▁इस	-5.52344
▁गया	-5.60576
▁कि	-5.63162
ों	-5.73448
▁जाता	-5.79386
▁जो	-5.80754
▁रूप	-5.83071
▁ही	-5.84988
▁कर	-5.89951
ी	-5.90255
▁हो	-5.90732
▁q	-5.95796
▁�	-5.9618
▁करने	-6.02532
▁तथा	-6.02997
▁नहीं	-6.0442
▁या	-6.05881
▁द्वारा	-6.06658
▁थे	-6.07652
▁साथ	-6.10308
▁•	-6.10502
X	-6.13181
▁भारत	-6.19548
▁होता	-6.22312
▁तक	-6.2697
▁बाद	-6.27109
:	-6.29987
ा	-6.34694
▁"	-6.36265
▁अपने	-6.36432
▁दिया	-6.36529
▁थी	-6.40197
▁हुआ	-6.4593
▁कुछ	-6.51698
न	-6.53352
▁जिला	-6.542
"	-6.54628
▁एवं	-6.58946
▁इसके	-6.59057
▁वे	-6.60088
▁वह	-6.63185
▁जा	-6.63427
�	-6.63471
▁नाम	-6.64125
'	-6.64378
▁राज्य	-6.68503
▁करते	-6.69113
▁समय	-6.7003
▁हुए	-6.7017
▁|	-6.70285
▁होती	-6.71055
▁तो	-6.72708
▁कई	-6.73695
▁'	-6.73918
▁अन्य	-6.75344
▁क्षेत्र	-6.78169
▁अधिक	-6.78992
▁कारण	-6.82293
▁प्रकार	-6.83206
▁सबसे	-6.83337
▁सकता	-6.85764
▁होने	-6.86971
▁स्थित	-6.87471
क	-6.8853
▁उनके	-6.88967
▁उन्होंने	-6.90935
▁वर्ष	-6.91665
▁किसी	-6.92274
र	-6.92864
▁वाले	-6.93473
▁जाती	-6.93802
▁भारतीय	-6.93898
ता	-6.94802
▁दो	-6.95107
▁करता	-6.95448
▁बहुत	-6.95654
▁होते	-6.95779
▁व	-6.99534
▁अपनी	-7.00025
▁पहले	-7.02637
▁पूर्व	-7.02829
▁गए	-7.03242
▁हुई	-7.03403
▁कहा	-7.03943
▁इन	-7.04937
▁जब	-7.06152
▁जैसे	-7.0673
े	-7.07549
▁ये	-7.0835
▁गई	-7.08804
▁कम	-7.10434
स	-7.11459
ो	-7.11527
▁लेकिन	-7.121
म	-7.12112
▁न	-7.14759
ं	-7.15079
▁/	-7.1562
▁भाषा	-7.16385
▁आदि	-7.17102
▁उन्हें	-7.17538
▁अनुसार	-7.18532
ल	-7.18633
▁इसका	-7.20152
▁प्राप्त	-7.20556
▁-	-7.20641
▁रहा	-7.21674
▁रहे	-7.22016
▁शामिल	-7.22886
▁उसके	-7.23521
▁सभी	-7.23895
▁उत्तर	-7.24056
;	-7.25935
▁तरह	-7.26542
▁लिये	-7.26593
▁इसे	-7.26688
▁जाने	-7.27225
▁बीच	-7.27297
्स	-7.29259
▁उस	-7.30628
▁उनकी	-7.31906
▁जाते	-7.32032
▁लिया	-7.32442
▁प्रयोग	-7.33213
▁भाग	-7.3323
▁कोई	-7.33366
▁प्रमुख	-7.35366
▁करना	-7.38101
▁देश	-7.38648
▁जिसमें	-7.38961
▁कार्य	-7.40181
▁गाँव	-7.41868
ना	-7.42042
▁यहाँ	-7.42595
▁जन्म	-7.427
▁ओर	-7.42767
▁जिले	-7.43173
▁लगभग	-7.43628
▁मुख्य	-7.43814
▁लोगों	-7.43952
▁प्रदेश	-7.45081
▁दी	-7.45609
▁निर्माण	-7.45822
▁उपयोग	-7.46452
▁स्थान	-7.47936
ने	-7.48938
▁दोनों	-7.49147
▁उसे	-7.4968
▁सकते	-7.49718
▁काम	-7.5007
▁शहर	-7.53368
▁बार	-7.54368
▁इसकी	-7.5489
▁विश्व	-7.55507
▁अ	-7.5632
▁इसी	-7.5733
▁सरकार	-7.57407
▁नगर	-7.57453
▁वाली	-7.57812
▁धर्म	-7.57835
▁विकास	-7.57978
▁तीन	-7.5932
▁दक्षिण	-7.59666
▁केवल	-7.60544
▁कहते	-7.61528
▁आ	-7.62628
▁माना	-7.63137
▁लोग	-7.63789
▁करती	-7.65163
▁विशेष	-7.65292
ित	-7.65635
▁प्राचीन	-7.65799
▁फिर	-7.65868
▁जीवन	-7.66088
▁ई	-7.66675
ई	-7.66703
▁दौरान	-7.67784
▁फिल्म	-7.68082
s	-7.68133
▁इसमें	-7.68272
▁आधार	-7.68633
E	-7.68912
▁मे	-7.69124
▁मंदिर	-7.69158
्	-7.6975
N	-7.70189
▁जिसे	-7.70427
▁विभिन्न	-7.71536
▁अलग	-7.71709
ीय	-7.72505
▁शब्द	-7.72888
▁द	-7.72899
▁बना	-7.7342
त	-7.73769
पुर	-7.74102
▁प्रसिद्ध	-7.74676
▁अब	-7.74928
▁यहां	-7.75087
कर	-7.75965
▁1	-7.76796
▁जी	-7.77057
▁उनका	-7.77137
▁युद्ध	-7.77147
▁राष्ट्रीय	-7.77478
▁प्रति	-7.77679
▁संवत	-7.77802
ए	-7.78431
▁शुरू	-7.78472
▁दिन	-7.78534
ियों	-7.78612
▁अनेक	-7.78675
▁क्योंकि	-7.7909
▁पास	-7.80808
▁जाना	-7.80906
▁2	-7.8142
▁तब	-7.82482
▁रही	-7.82874
▁काल	-7.83104
0	-7.84188
व	-7.84446
▁बन	-7.84579
▁ईसा	-7.84645
▁अपना	-7.84831
ि	-7.85114
िक	-7.86132
▁अलावा	-7.86773
▁व्यक्ति	-7.8823
▁मध्य	-7.88307
▁सन्	-7.88429
▁जिसके	-7.88609
▁हालांकि	-7.88968
▁नदी	-7.89681
▁राजा	-7.89782
▁विज्ञान	-7.90026
▁गयी	-7.90226
/	-7.90394
▁संख्या	-7.91251
▁महत्वपूर्ण	-7.91656
▁साल	-7.92116
▁ले	-7.92246
▁बड़े	-7.92434
▁कभी	-7.92889
ज	-7.93126
▁जल	-7.93225
▁किए	-7.93473
▁ए	-7.93599
प	-7.93809
▁प्रथम	-7.94736
▁नामक	-7.94989
▁अध्ययन	-7.95384
▁मूल	-7.96052
▁प्रदान	-7.96279
▁शिक्षा	-7.96566
▁अन्तर्गत	-7.96773
▁उन	-7.97304
▁जिसका	-7.98303
▁अर्थ	-7.998
▁चाहिए	-7.9993
▁सकती	-8.00104
ते	-8.00374
▁अमेरिका	-8.00379
ट	-8.00593
▁दूसरे	-8.00701
▁हिन्दी	-8.01169
▁प्रभाव	-8.01236
▁साहित्य	-8.01514
▁संयुक्त	-8.01622
▁उसकी	-8.01639
▁कुल	-8.01753
▁the	-8.01784
▁दिल्ली	-8.02091
▁वाला	-8.02154
ओं	-8.02521
▁स्थापित	-8.02606
▁जबकि	-8.03046
▁तौर	-8.03503
▁गये	-8.03911
▁हर	-8.04486
▁आम	-8.0455
▁उच्च	-8.04855
▁स्थापना	-8.0508
▁ऐसे	-8.05124
▁बड़ा	-8.05174
▁बात	-8.05205
▁इतिहास	-8.05452
▁ऐसा	-8.05764
▁बड़ी	-8.05987
▁सिंह	-8.06144
▁चार	-8.07295
▁आज	-8.08154
▁देने	-8.08303
▁पहली	-8.08741
▁देशों	-8.08763
▁अथवा	-8.0931
°	-8.09729
▁वर्तमान	-8.10013
सी	-8.10134
ब	-8.10141
▁बनाया	-8.10175
▁यदि	-8.11597
▁विश्वविद्यालय	-8.11796
द	-8.11927
▁किये	-8.13002
▁3	-8.13394
▁काफी	-8.13763
▁रखा	-8.13883
नी	-8.13915
▁करके	-8.14467
रा	-8.15024
▁उसने	-8.15633
जी	-8.15697
▁समूह	-8.15831
▁प्रत्येक	-8.16051
▁श्री	-8.16103
▁बनाने	-8.16436
▁वर्षों	-8.16611
री	-8.16754
▁लेकर	-8.17061
▁जिससे	-8.171
▁स्थिति	-8.17594
▁सेना	-8.17863
▁स्तर	-8.18242
▁:	-8.18313
▁उपलब्ध	-8.18316
▁सी	-8.18553
का	-8.1869
▁बारे	-8.1919
▁इनके	-8.19669
▁तहसील	-8.19695
ली	-8.198
▁क्षेत्रों	-8.19981
ला	-8.20099
▁10	-8.2027
य	-8.20659
▁उसका	-8.20877
ें	-8.21992
▁अधिकांश	-8.22029
▁दुनिया	-8.2244
▁मण्डल	-8.22509
▁वर्ग	-8.22999
2	-8.2317
▁फ़िल्म	-8.23726
▁ब्रिटिश	-8.23757
▁सेवा	-8.2386
▁लगा	-8.24059
▁रहता	-8.24129
▁रंग	-8.24374
▁देता	-8.24443
▁of	-8.24743
▁माध्यम	-8.24892
▁इस्तेमाल	-8.24907
▁15	-8.2543
▁शरीर	-8.25776
▁पानी	-8.25877
ड	-8.25986
▁दे	-8.26039
▁इससे	-8.26304
▁स	-8.26613
ह	-8.26838
▁जहाँ	-8.2696
▁दूर	-8.27035
▁जहां	-8.27044
▁5	-8.27825
▁सदस्य	-8.28132
▁परिवार	-8.2819
ती	-8.28332
▁पाकिस्तान	-8.28343
▁सभा	-8.28592
▁समान	-8.28734
▁प्रणाली	-8.28739
▁उत्पन्न	-8.28884
▁‘	-8.29011
▁इसलिए	-8.29391
▁अधिकार	-8.29996
वीं	-8.30344
▁पुरस्कार	-8.30829
▁आधुनिक	-8.31019
▁होकर	-8.31085
▁उदाहरण	-8.31183
▁संगीत	-8.31193
▁आगे	-8.31211
ज़	-8.31408
▁बने	-8.31529
▁अंत	-8.31894
▁छोटे	-8.32013
▁मानव	-8.32156
▁अतिरिक्त	-8.32261
ग	-8.3228
▁सामाजिक	-8.32614
▁शक्ति	-8.32688
▁क	-8.32769
िया	-8.32894
▁रहते	-8.32964
▁सामान्य	-8.33083
’	-8.33294
▁थीं	-8.33522
▁8	-8.33862
▁विकसित	-8.3387
▁जिस	-8.33914
▁होगा	-8.34027
▁कला	-8.3426
▁संघ	-8.34474
िंग	-8.34955
▁समाज	-8.3517
▁देते	-8.35188
▁जिनमें	-8.35284
▁कंपनी	-8.3543
च	-8.35463
▁शासन	-8.35559
▁जारी	-8.35565
▁16	-8.36047
▁राजधानी	-8.36679
▁शताब्दी	-8.3679
▁ज्ञान	-8.36862
▁ऊपर	-8.37649
▁भूमिका	-8.37724
या	-8.37793
▁सब	-8.37936
▁पिता	-8.37952
▁4	-8.37955
▁20	-8.38119
▁मृत्यु	-8.38822
▁आधारित	-8.39032
▁ली	-8.39209
▁बाहर	-8.39516
▁पश्चिम	-8.39816
श	-8.40237
▁विचार	-8.40462
▁स्टेशन	-8.40493
▁ध्यान	-8.40547
▁मात्रा	-8.40737
▁प्रकाश	-8.40756
▁प्रकाशित	-8.41062
ंग	-8.41084
टी	-8.41147
▁पता	-8.41153
के	-8.41341
ले	-8.41879
▁6	-8.42397
▁संबंध	-8.42748
▁बनी	-8.42758
▁ऑफ	-8.43366
▁भगवान	-8.43652
▁उत्तरी	-8.44081
▁चीन	-8.44274
▁विषय	-8.44318
▁घर	-8.44335
▁पूरी	-8.44437
▁पहला	-8.4446
ओ	-8.44608
▁रचना	-8.44848
▁रेलवे	-8.4539
▁देखा	-8.45496
▁प्रक्रिया	-8.46726
वा	-8.47151
▁चुनाव	-8.47453
▁स्वयं	-8.47494
▁पद	-8.47608
▁नए	-8.47987
▁12	-8.48182
मा	-8.48519
▁पृथ्वी	-8.48606
▁स्	-8.48668
▁बिहार	-8.48728
▁तैयार	-8.49203
▁ऐसी	-8.49292
▁इनमें	-8.49317
▁पश्चिमी	-8.49322
▁नीचे	-8.49439
▁17	-8.49746
▁मार्ग	-8.50005
▁साम्राज्य	-8.50068
▁दूसरी	-8.50239
▁सीमा	-8.5048
▁जनसंख्या	-8.50556
▁होना	-8.51078
▁अक्सर	-8.51085
▁उत्पादन	-8.51104
▁दशक	-8.51151
ण	-8.51161
▁वि	-8.51213
▁राज	-8.51406
ु	-8.51523
▁किलोमीटर	-8.51626
▁सहायता	-8.51867
▁भर	-8.51909
▁व्यवस्था	-8.52085
▁दृष्टि	-8.52199
▁आने	-8.52391
▁वहाँ	-8.52425
▁9	-8.52666
▁यात्रा	-8.52806
▁लिखा	-8.52991
▁पूर्ण	-8.5303
▁संस्कृत	-8.53139
▁भिन्न	-8.53367
▁पाया	-8.5342
▁रोग	-8.54134
▁आप	-8.54195
▁मिला	-8.54206
▁पार्टी	-8.54279
▁हिस्सा	-8.5428
▁अंग्रेजी	-8.54305
▁जगह	-8.54424
▁वो	-8.5464
▁सन	-8.54747
▁पूर्वी	-8.55061
▁बिना	-8.55248
▁7	-8.55682
▁पुत्र	-8.55926
▁सिद्धांत	-8.55987
▁बी	-8.56066
बी	-8.56086
▁उत्तराखण्ड	-8.56115
▁खेल	-8.56122
▁टीम	-8.56194
▁लगे	-8.56219
▁आवश्यक	-8.56249
▁विभाग	-8.56491
▁आर्थिक	-8.56851
▁सदी	-8.5701
अ	-8.57229
▁उसी	-8.57247
▁उप	-8.57357
▁गति	-8.57475
▁हेतु	-8.577
▁तुलना	-8.57824
▁अमेरिकी	-8.58147
▁राम	-8.58352
▁रहती	-8.58743
से	-8.58797
▁मिलता	-8.58845
▁पूरा	-8.58852
1	-8.58965
▁केंद्र	-8.59045
्य	-8.59239
▁वर्णन	-8.59252
▁रहने	-8.59343
▁इनका	-8.59885
▁सु	-8.60025
▁भूमि	-8.60477
▁ज्यादा	-8.60785
▁अंतर्राष्ट्रीय	-8.60883
▁क्रिकेट	-8.60898
▁हम	-8.61169
▁नई	-8.61248
▁आकार	-8.61261
डी	-8.61263
▁अभी	-8.61411
वी	-8.61493
▁संगठन	-8.61567
▁प्रदर्शन	-8.61597
▁द्वीप	-8.61721
▁आते	-8.61755
रे	-8.61876
▁स्थानीय	-8.62028
▁पूरे	-8.62187
▁प्र	-8.62384
को	-8.62721
▁आई	-8.62975
▁डी	-8.63022
▁किंतु	-8.63127
▁लोक	-8.63872
▁राष्ट्र	-8.64065
▁युग	-8.6451
▁अवधि	-8.64579
▁मिल	-8.64678
▁पड़ा	-8.64876
▁ऑफ़	-8.64928
़	-8.65186
▁प्रभावित	-8.65435
▁विशिष्ट	-8.65454
▁वृद्धि	-8.65944
▁बल	-8.66109
▁परिवर्तन	-8.66133
▁व्यापार	-8.66469
▁योजना	-8.66528
▁स्पष्ट	-8.66876
▁अंतिम	-8.67031
की	-8.67394
ू	-8.67408
दा	-8.67461
▁प्रवेश	-8.67587
▁दर	-8.67839
▁विधि	-8.67846
▁प्रयास	-8.68199
▁यूरोप	-8.6822
▁लोकप्रिय	-8.68315
▁राजनीतिक	-8.68348
▁लाल	-8.68395
▁आवश्यकता	-8.68746
▁सं	-8.68888
▁शुरुआत	-8.68986
▁कार्यक्रम	-8.69022
▁हिंदी	-8.69193
म्	-8.69207
▁14	-8.69553
▁शिव	-8.69747
▁दूरी	-8.69847
▁सके	-8.70102
▁धार्मिक	-8.70108
▁शक	-8.70279
▁क्षमता	-8.70337
▁सा	-8.70447
सा	-8.70501
▁एशिया	-8.70586
▁रखने	-8.70705
▁शैली	-8.70761
एँ	-8.70879
▁संबंधित	-8.7098
▁हिन्दू	-8.71028
▁11	-8.71666
▁दर्शन	-8.7181
मी	-8.7193
▁विस्तार	-8.72107
▁लाख	-8.7217
▁माता	-8.72333
▁दूसरा	-8.72526
▁आता	-8.726
▁ऐतिहासिक	-8.72695
▁लेने	-8.72935
▁इन्हें	-8.7295
▁द्वितीय	-8.72993
▁व्यापक	-8.73408
▁18	-8.73427
▁कोड	-8.73579
▁नियंत्रण	-8.74101
▁श्रेणी	-8.74284
▁जाति	-8.74426
▁खोज	-8.74489
▁आया	-8.74724
▁आबादी	-8.74786
▁संस्थान	-8.74863
▁य	-8.74872
फ	-8.75121
स्	-8.75245
आ	-8.75405
▁उद्देश्य	-8.75467
निर्देशांक	-8.75687
▁पदार्थ	-8.75729
वाद	-8.75884
▁मीटर	-8.75895
▁इन्होंने	-8.7619
▁संस्कृति	-8.76442
▁प्रतिशत	-8.76522
▁स्कूल	-8.76638
▁वैज्ञानिक	-8.76848
▁इनकी	-8.76974
▁मन	-8.77009
थ	-8.77029
▁2008	-8.77206
▁बौद्ध	-8.77386
एस	-8.77626
▁.	-8.77642
▁स्थल	-8.77803
▁म	-8.77818
▁राष्ट्रपति	-8.7797
▁प्राकृतिक	-8.78022
▁रह	-8.78031
▁प्रस्तुत	-8.78255
▁दिए	-8.78591
▁and	-8.78771
▁ऊर्जा	-8.78818
▁जिन्हें	-8.78971
▁मई	-8.79027
▁2007	-8.79089
▁जनवरी	-8.79115
▁कांग्रेस	-8.79278
▁उल्लेख	-8.79482
▁जाए	-8.79548
▁विशाल	-8.79883
▁13	-8.79962
▁दिखाई	-8.80271
▁प्रदर्शित	-8.80466
▁सहित	-8.80573
▁ब	-8.80609
वे	-8.80882
▁जनता	-8.81045
▁अल	-8.81193
▁बजे	-8.81292
▁सुरक्षा	-8.81642
▁in	-8.81657
▁अंतर्गत	-8.81734
▁रेल	-8.81763
▁30	-8.81971
▁दल	-8.81975
|	-8.82028
▁विवाह	-8.8258
▁देव	-8.82613
ति	-8.82648
▁बैंक	-8.82758
▁हाथ	-8.82765
▁पुराने	-8.82992
3	-8.8303
पी	-8.83154
▁मार्च	-8.83182
▁स्वतंत्रता	-8.83341
▁बनाए	-8.83411
▁दिशा	-8.83708
▁प्रचलित	-8.83753
▁हवाई	-8.84081
▁समर्थन	-8.84188
▁निर्मित	-8.84254
▁नि	-8.8428
गा	-8.84456
▁सामने	-8.84585
▁चिकित्सा	-8.84743
ed	-8.84926
▁उद्योग	-8.8506
▁पड़ता	-8.85112
इ	-8.85148
▁जानकारी	-8.85188
▁मैं	-8.85339
▁2009	-8.85589
▁घोषणा	-8.85608
▁बताया	-8.85665
▁कृष्ण	-8.85683
4	-8.8569
▁खिलाफ	-8.85722
▁मिली	-8.85768
▁पैदा	-8.85891
▁परंतु	-8.86471
▁संस्करण	-8.86505
▁=	-8.8656
▁पुस्तक	-8.86691
▁निम्न	-8.86926
ख	-8.86952
▁देवी	-8.86955
▁परन्तु	-8.87187
▁गुरु	-8.87205
▁क्रिया	-8.87242
▁पहचान	-8.87293
▁समाप्त	-8.87302
▁महान	-8.87428
▁a	-8.87471
▁कृषि	-8.87509
▁कवि	-8.87763
कार	-8.87847
▁स्वीकार	-8.88089
▁चला	-8.88176
▁तहत	-8.88269
▁ओ	-8.88377
▁वजह	-8.8884
▁महत्व	-8.8887
▁अफ्रीका	-8.88871
▁दिनों	-8.88881
▁किन्तु	-8.88905
वर	-8.89017
▁सफल	-8.89111
▁मदद	-8.89284
▁ट्रेन	-8.89339
▁भीतर	-8.89359
▁अरब	-8.89382
▁किमी	-8.89427
▁यही	-8.89477
▁जून	-8.89489
▁ना	-8.89554
▁वंश	-8.89685
▁परिणाम	-8.89815
▁अप्रैल	-8.8987
▁स्वतंत्र	-8.90102
▁दक्षिणी	-8.90194
▁जिसकी	-8.90492
▁नेतृत्व	-8.90607
▁विमानक्षेत्र	-8.907
▁सम्मानित	-8.90835
▁इंग्लैंड	-8.9089
▁25	-8.90897
▁प	-8.91004
▁एस	-8.91091
▁अवस्था	-8.91235
एं	-8.91387
▁एम	-8.91555
▁भाषाओं	-8.91815
▁छोटी	-8.91918
▁पर्वत	-8.92091
▁राज्यों	-8.92408
▁च	-8.92644
*	-8.92649
रो	-8.92738
बा	-8.92942
▁कमी	-8.92987
▁महिला	-8.93066
▁सूर्य	-8.93106
▁पी	-8.93208
▁रक्त	-8.93314
▁शब्दों	-8.93315
▁पत्र	-8.93529
▁अक्टूबर	-8.93828
▁जुलाई	-8.94128
▁गांधी	-8.94346
▁अगस्त	-8.94412
▁लाभ	-8.94442
िका	-8.94444
▁समुद्र	-8.94541
▁कहानी	-8.94568
▁मान	-8.9505
▁भागों	-8.95066
▁पांच	-8.95376
▁जीव	-8.95386
▁आरम्भ	-8.95548
▁बंगाल	-8.95582
▁व्यवहार	-8.95671
▁कॉलेज	-8.9569
▁लगता	-8.95696
▁बंद	-8.95716
▁2006	-8.95859
▁भाई	-8.9587
▁क्या	-8.95986
▁एंड	-8.96037
▁कानून	-8.96087
▁देती	-8.96224
▁योगदान	-8.96401
▁केन्द्र	-8.96552
साथ	-8.96703
▁महा	-8.96793
▁मिलती	-8.9681
▁उनमें	-8.96843
▁मौजूद	-8.97124
▁पीछे	-8.97305
▁अनुसंधान	-8.97308
▁19	-8.97388
▁समुदाय	-8.97407
▁मनुष्य	-8.97431
▁जिसने	-8.97486
यों	-8.98004
▁परीक्षण	-8.98036
▁निम्नलिखित	-8.98088
ड़	-8.98175
वि	-8.9819
▁पाए	-8.98391
ियाँ	-8.98407
▁यूरोपीय	-8.9842
▁श्रृंखला	-8.98477
▁एन	-8.98486
▁अगर	-8.98608
जा	-8.98674
▁गीत	-8.98768
▁बच्चों	-8.98833
ीकरण	-8.98951
▁स्वास्थ्य	-8.98953
▁मत	-8.9897
▁मैच	-8.99053
▁विधान	-8.99339
▁करोड़	-8.99346
▁सात	-8.9948
▁शासक	-8.99487
▁मानते	-8.99537
▁चीनी	-8.9954
▁पद्धति	-8.99614
▁ब्रिटेन	-8.99678
▁सागर	-8.99843
▁अध्यक्ष	-9.00117
▁अंतर	-9.00305
▁कुमाऊँ	-9.00419
▁जैन	-9.0066
▁ग	-9.00907
▁टी	-9.01074
▁आरंभ	-9.01084
न्	-9.01203
सर	-9.01226
▁लेखक	-9.01421
▁बल्कि	-9.01508
▁गांव	-9.01539
▁बढ़	-9.01558
▁बाल	-9.01639
▁वापस	-9.01717
▁to	-9.01719
▁सूची	-9.01794
▁त	-9.01889
▁अंग	-9.0198
▁जैसा	-9.02102
▁हे	-9.02189
▁सार्वजनिक	-9.02195
▁वस्तु	-9.02318
दार	-9.02412
▁फ्रांस	-9.02424
▁प्रयुक्त	-9.02558
▁गैर	-9.02674
▁सरकारी	-9.02704
▁कु	-9.0274
▁आयोजित	-9.02798
▁2010	-9.02976
▁अतः	-9.0299
▁अंतरराष्ट्रीय	-9.03087
▁सर	-9.03098
▁सहायक	-9.03198
मान	-9.03287
▁जन	-9.03593
ँ	-9.0372
राज	-9.03783
▁ग्रंथ	-9.03822
▁संचालित	-9.03866
▁जनगणना	-9.04048
▁हाल	-9.04165
▁ला	-9.0423
▁देखने	-9.04333
▁रक्षा	-9.04634
▁बस	-9.04642
▁चुके	-9.04718
▁छोड़	-9.04787
▁इ	-9.04887
▁काव्य	-9.04959
▁ठीक	-9.04966
▁संविधान	-9.05036
▁विरोध	-9.05124
प्र	-9.05407
▁आंदोलन	-9.05441
▁जैसी	-9.05495
▁उपचार	-9.05534
▁औसत	-9.05594
▁मुंबई	-9.05609
▁आक्रमण	-9.0565
!	-9.05654
उ	-9.05671
▁वायु	-9.05675
▁वहां	-9.05684
▁विश्वास	-9.05707
▁ज्ञात	-9.05792
▁आर	-9.05797
▁M	-9.05824
▁गो	-9.06127
▁कहीं	-9.06207
▁संकेत	-9.06266
▁मुक्त	-9.06344
▁मुस्लिम	-9.06406
▁चुका	-9.06419
▁उम्र	-9.06538
▁उसमें	-9.06735
डा	-9.06818
▁चित्र	-9.07181
▁घटना	-9.07234
ः	-9.07331
▁सूचना	-9.07493
▁योग	-9.07726
▁सुधार	-9.07806
▁चल	-9.07973
▁बदल	-9.08044
▁मान्यता	-9.08193
▁स्वरूप	-9.08301
▁विस्तृत	-9.08359
▁इंटरनेट	-9.08444
▁निर्भर	-9.08544
फ़	-9.08796
▁निश्चित	-9.08835
िन	-9.08908
▁संबंधी	-9.09082
▁पक्ष	-9.09137
▁नियम	-9.09234
▁लगाया	-9.09268
▁डिग्री	-9.09348
5	-9.09479
▁सम्मान	-9.09591
ात्मक	-9.09667
▁जाएगा	-9.09784
▁पंजाब	-9.10077
▁इत्यादि	-9.10115
▁जिन्होंने	-9.10129
▁भोजन	-9.1037
▁लागू	-9.10375
▁प्रकृति	-9.1045
▁सदस्यों	-9.10455
▁विजय	-9.10464
▁अनुवाद	-9.10551
▁घंटे	-9.1065
▁खान	-9.10678
▁अंग्रेज़ी	-9.10792
▁अली	-9.10798
▁ताकि	-9.10815
▁जीत	-9.10901
▁सर्वाधिक	-9.1092
▁यद्यपि	-9.10932
▁मेल	-9.10933
▁धन	-9.11072
▁दस	-9.11097
▁मिनट	-9.11313
▁नीति	-9.11395
▁मुख्यालय	-9.11558
▁खुद	-9.11594
▁डॉ॰	-9.11721
▁पाँच	-9.1182
▁अत	-9.11967
▁निर्णय	-9.12087
▁आमतौर	-9.12128
▁अच्छी	-9.12263
▁प्रान्त	-9.1239
▁पार	-9.12492
▁निजी	-9.12603
▁संसद	-9.12787
6	-9.12887
▁समिति	-9.13143
▁चरण	-9.13179
▁नेटवर्क	-9.13254
▁तरफ	-9.13328
▁अधिकतर	-9.1338
▁तट	-9.13474
▁फल	-9.135
▁नया	-9.13605
▁S	-9.13685
▁उससे	-9.13697
▁निकट	-9.13699
▁आए	-9.13718
▁हासिल	-9.13729
▁संभव	-9.13741
▁प्रारंभ	-9.13774
▁र	-9.13888
हा	-9.13924
▁तेल	-9.14007
▁सीमित	-9.14045
▁राजस्थान	-9.14058
▁रूस	-9.1411
▁अनुमान	-9.14195
▁विद्युत	-9.1425
▁वन	-9.14295
▁मन्दिर	-9.14322
र्स	-9.14346
▁जर्मनी	-9.14513
▁सामग्री	-9.1452
▁प्रौद्योगिकी	-9.14566
आर	-9.14623
भारत	-9.14655
▁संत	-9.1478
▁सांस्कृतिक	-9.14899
▁गुण	-9.14951
▁गणना	-9.15066
नगर	-9.15077
▁स्थानों	-9.15248
▁अनुमति	-9.15377
▁विपरीत	-9.15455
▁लेख	-9.15498
▁पुलिस	-9.15706
▁मामले	-9.15727
▁पे	-9.16029
▁2005	-9.16119
n	-9.16168
▁24	-9.16282
▁बुद्ध	-9.16283
▁मंत्री	-9.16472
▁ह	-9.1648
▁सिद्ध	-9.16489
▁मिलियन	-9.16722
▁आसपास	-9.16925
▁बावजूद	-9.1698
▁इस्लाम	-9.17054
▁कविता	-9.17107
▁भू	-9.17157
▁यू	-9.17235
▁प्रधान	-9.17307
▁पूजा	-9.1732
▁शाह	-9.17387
▁निर्वाचन	-9.17446
▁देना	-9.17456
▁करीब	-9.17671
▁नेपाल	-9.17691
▁तापमान	-9.17895
▁आधिकारिक	-9.18107
काल	-9.18251
▁बनाई	-9.18454
▁स्रोत	-9.18497
▁बोली	-9.18583
▁वास्तविक	-9.18598
ियां	-9.18621
▁सही	-9.18668
▁भारी	-9.18734
▁गंगा	-9.18764
टा	-9.18769
▁निर्धारित	-9.18816
▁सक्रिय	-9.18898
▁नृत्य	-9.19013
राम	-9.19041
▁छोटा	-9.19082
▁अत्यंत	-9.19284
▁हों	-9.19383
▁नियुक्त	-9.19478
सन	-9.1951
पूर्ण	-9.19512
▁मामलों	-9.19657
▁सफलता	-9.19704
▁मात्र	-9.19855
▁दृश्य	-9.19898
▁अधिनियम	-9.19922
▁सुविधा	-9.19966
▁प्रेम	-9.19974
▁संरचना	-9.20081
▁21	-9.20162
▁पुरुष	-9.2022
▁कथा	-9.20419
)	-9.20449
▁लगी	-9.20533
▁बांग्लादेश	-9.20556
▁प्रारंभिक	-9.2067
▁लेते	-9.20705
▁जे	-9.2081
▁C	-9.20836
▁शाखा	-9.20841
▁महल	-9.20972
▁चलता	-9.21085
▁सारे	-9.211
▁कार्यों	-9.21137
▁मिलते	-9.212
▁बाजार	-9.21442
▁घोषित	-9.21451
▁लीग	-9.21481
▁न्यायालय	-9.21487
▁झील	-9.21521
▁राजनीति	-9.2172
पर	-9.21748
▁सह	-9.21797
▁अति	-9.21824
▁रखते	-9.21833
▁वास्तव	-9.21911
▁कश्मीर	-9.21934
▁गैस	-9.21934
▁उपन्यास	-9.22124
▁पत्नी	-9.22138
▁पर्याप्त	-9.22174
▁विभाजित	-9.22175
▁धीरे	-9.2226
नाथ	-9.22353
▁विदेशी	-9.22437
▁मार	-9.22474
▁मानक	-9.22483
▁होगी	-9.22521
▁मिट्टी	-9.22528
▁विधानसभा	-9.22727
▁आती	-9.22729
अलग	-9.22865
▁संग्रह	-9.22926
▁ऑस्ट्रेलिया	-9.22934
▁तत्व	-9.22939
▁100	-9.23061
▁साधारण	-9.23206
%	-9.23742
▁महिलाओं	-9.23758
▁2011	-9.23841
▁A	-9.23894
यह	-9.23987
▁अनुभव	-9.24005
▁समस्या	-9.24023
▁एल	-9.24113
▁उ	-9.24181
▁प्रांत	-9.24207
▁आयु	-9.24325
▁प्राय	-9.2434
▁उन्होने	-9.24367
ंस	-9.24377
▁शुरु	-9.2457
7	-9.24818
▁अत्यधिक	-9.24938
▁ग्राम	-9.25006
▁खिलाड़ी	-9.25089
▁लक्षण	-9.25166
▁प्रबंधन	-9.2518
▁धारा	-9.25324
▁उपकरण	-9.25471
▁राय	-9.25704
▁जर्मन	-9.25844
▁ताप	-9.25866
▁पार्क	-9.25898
ये	-9.26007
▁सतह	-9.26114
▁विष्णु	-9.2618
मन	-9.26273
▁एक्स्प्रेस	-9.26289
▁जिनके	-9.26313
▁जिन	-9.2636
▁गठन	-9.26387
▁प्रधानमंत्री	-9.26393
▁रस	-9.26432
▁करें	-9.26593
al	-9.26631
▁पाई	-9.26661
8	-9.26877
▁बच्चे	-9.27042
▁लिखी	-9.27102
▁50	-9.27232
▁बे	-9.273
▁जापान	-9.27407
▁परमाणु	-9.27462
▁धातु	-9.27509
e	-9.27612
▁जुड़े	-9.27659
▁पालन	-9.27735
नि	-9.27792
▁कोशिश	-9.27897
गी	-9.27994
कभी	-9.28006
▁ख	-9.28032
▁क्रम	-9.28146
▁डे	-9.28189
▁सप्तर्षि	-9.283
▁पुनः	-9.28373
▁चले	-9.28376
▁भवन	-9.28383
▁संघर्ष	-9.28401
?	-9.2841
वें	-9.2858
▁बनने	-9.28702
त्	-9.28855
▁लिपि	-9.28858
▁सम्मिलित	-9.28887
▁ऐ	-9.28891
▁मिलकर	-9.29033
▁मुहम्मद	-9.29345
▁चक्र	-9.29525
▁सत्ता	-9.29577
▁सत्य	-9.29658
▁महीने	-9.29764
सिंह	-9.29778
देव	-9.29804
▁मु	-9.30028
वादी	-9.30169
▁26	-9.3029
▁शोध	-9.30296
▁2014	-9.304
▁2000	-9.30435
▁प्रकाशन	-9.30503
▁रात	-9.30588
▁जिनका	-9.30596
▁तमिल	-9.30816
▁इंडिया	-9.30838
▁परियोजना	-9.30861
▁रि	-9.30867
▁लक्ष्य	-9.31116
एक	-9.31157
▁सम्बन्ध	-9.31193
▁भौतिक	-9.31489
▁सहयोग	-9.31489
▁शादी	-9.31495
▁हिंदू	-9.31656
▁लंदन	-9.31681
▁22	-9.31754
▁क्रांति	-9.32017
▁अम्ल	-9.3218
▁सैन्य	-9.32281
ing	-9.32345
▁ईश्वर	-9.32588
9	-9.32598
▁आठ	-9.32675
▁घाटी	-9.32723
▁मा	-9.33026
▁रे	-9.3303
इस	-9.33143
▁अच्छा	-9.3317
▁भाव	-9.3327
▁शेष	-9.33398
▁न्यू	-9.33624
▁तंत्र	-9.33687
▁2004	-9.33696
▁लगातार	-9.33738
▁अधिकारी	-9.33857
▁मिले	-9.33879
▁तल	-9.3396
▁कप	-9.33961
▁सर्वश्रेष्ठ	-9.33992
▁शो	-9.33993
▁प्रकट	-9.34037
▁स्वामी	-9.34059
▁रेडियो	-9.34062
▁आयोजन	-9.34183
विज्ञान	-9.34197
▁प्रचार	-9.34268
त्व	-9.34447
▁जॉन	-9.34473
▁डिजाइन	-9.34496
▁अधार	-9.34549
▁अस्तित्व	-9.3455
▁व्यक्तियों	-9.34605
▁सक्षम	-9.34665
ाई	-9.34826
▁नेता	-9.34845
▁नाटक	-9.34886
▁आदेश	-9.3496
▁औद्योगिक	-9.35015
–	-9.35032
▁रासायनिक	-9.35054
▁चेन्नई	-9.35084
▁मूल्य	-9.35085
▁अकादमी	-9.35139
▁किनारे	-9.35174
▁सम	-9.35298
▁अधीन	-9.35318
▁हत्या	-9.35351
▁क्लब	-9.35642
▁प्रस्ताव	-9.35729
▁वीं	-9.35735
जन	-9.35758
▁परिषद	-9.35806
▁सिर	-9.35881
▁कुमार	-9.3604
नो	-9.36046
▁अवसर	-9.36153
▁डि	-9.36236
▁मांग	-9.36326
▁बराबर	-9.36372
▁कंप्यूटर	-9.36525
ियन	-9.36578
▁हिस्से	-9.36664
▁I	-9.36765
▁वस्तुओं	-9.36833
▁तरीके	-9.36928
}	-9.37156
▁व्याख्या	-9.37291
▁निवास	-9.37357
▁डॉलर	-9.37394
▁मॉडल	-9.37401
▁B	-9.37466
▁सि	-9.37503
▁पिछले	-9.37527
दी	-9.37559
▁वर्षा	-9.37658
▁चारों	-9.37678
▁उत्पाद	-9.37768
▁विमान	-9.37859
▁सड़क	-9.38029
▁सिर्फ	-9.38339
▁सूत्र	-9.38371
▁संस्था	-9.38385
▁फिल्मों	-9.38892
y	-9.38954
▁अर्थात्	-9.39013
▁नष्ट	-9.3912
▁नौ	-9.39187
▁पवित्र	-9.39187
▁पत्थर	-9.39357
िस	-9.3943
▁सौ	-9.39528
▁गढ़वाल	-9.39556
▁40	-9.39568
पा	-9.39585
▁उल्लेखनीय	-9.39716
▁वातावरण	-9.39784
▁दिसम्बर	-9.3993
▁28	-9.40083
▁ल	-9.40103
▁शास्त्र	-9.40176
▁अभिनय	-9.40191
ेश्वर	-9.40434
▁2001	-9.40518
▁योग्य	-9.40613
▁क्षेत्रफल	-9.40716
▁मौसम	-9.40739
▁अभियान	-9.40798
▁वहीं	-9.40809
▁चर्च	-9.41064
▁हवा	-9.41099
▁प्रशासनिक	-9.41121
▁सरल	-9.41187
▁हमारे	-9.41218
▁छह	-9.41356
▁लिखे	-9.41408
▁23	-9.41424
▁रसायन	-9.41428
▁मील	-9.41479
▁शहरों	-9.41492
▁F	-9.41576
गो	-9.4176
▁वी	-9.41915
▁अन्तर	-9.42
▁पा	-9.42035
▁कार	-9.42076
▁परिणामस्वरूप	-9.42202
▁अंदर	-9.42225
C	-9.42232
▁इतना	-9.42259
▁रेखा	-9.42368
▁तर्क	-9.42413
▁प्रायः	-9.42475
▁ग्रहण	-9.42518
मो	-9.42629
▁प्रमाण	-9.42645
▁नागरिक	-9.42697
▁देख	-9.42788
a	-9.42796
सं	-9.4289
।"	-9.42931
▁सामूहिक	-9.42964
▁बजाय	-9.43078
▁समाचार	-9.43158
आई	-9.432
▁लखनऊ	-9.43337
▁आये	-9.43492
▁खास	-9.43566
▁हमेशा	-9.43571
रूप	-9.43688
▁2012	-9.438
▁मैदान	-9.4389
▁इसने	-9.4391
▁परंपरा	-9.43969
तर	-9.44007
▁सोवियत	-9.44047
▁अगले	-9.44048
▁कैंसर	-9.44083
▁संपर्क	-9.44155
▁आय	-9.44305
▁शीर्ष	-9.44347
▁विचारों	-9.44421
▁तकनीक	-9.44551
▁सुरक्षित	-9.4462
▁ग्रह	-9.44667
▁माँ	-9.44668
▁चुकी	-9.44757
d	-9.45037
ंट	-9.45199
▁अभिनेता	-9.45202
▁सम्राट	-9.45322
▁–	-9.45344
▁प्रतिनिधित्व	-9.45428
▁अनु	-9.45453
▁इंजन	-9.45472
▁व्यक्तिगत	-9.45532
ंड	-9.4555
▁रोमन	-9.45639
वन	-9.45679
▁ईसाई	-9.45854
▁प्राथमिक	-9.45888
▁चाहते	-9.45959
▁संरक्षण	-9.46127
▁P	-9.46188
▁नर	-9.46318
▁पश्चात्	-9.46327
▁पश्चात	-9.46407
▁विश्लेषण	-9.46787
जो	-9.46925
स्ट	-9.46946
▁अंतरिक्ष	-9.47079
▁सैनिक	-9.47227
▁प्रशिक्षण	-9.4731
पन	-9.47339
▁वीर	-9.47482
▁इलाहाबाद	-9.47569
▁→	-9.47588
A	-9.4764
▁विद्यालय	-9.47679
▁मि	-9.47735
▁मुख्यतः	-9.47786
▁बहु	-9.47793
▁{\	-9.4787
▁नवम्बर	-9.4814
▁विषयों	-9.48142
▁लेता	-9.48225
▁स्व	-9.48239
जे	-9.48417
▁पहुँच	-9.48434
▁उपस्थित	-9.48441
▁महाराष्ट्र	-9.48565
▁पहाड़ी	-9.48598
▁हार	-9.48662
▁रिपोर्ट	-9.487
▁विरुद्ध	-9.48736
ठ	-9.48738
▁दृष्टिकोण	-9.48754
▁व्यवसाय	-9.49257
▁1990	-9.49318
▁प्रशासन	-9.49348
▁दबाव	-9.49352
मैन	-9.49459
▁संसार	-9.4946
▁27	-9.49502
▁रचित	-9.49605
▁रानी	-9.49622
▁गणराज्य	-9.49797
एम	-9.49867
t	-9.49868
ध	-9.49931
▁जिसमे	-9.49962
▁दर्शाता	-9.50108
▁सॉफ्टवेयर	-9.5024
▁व्यक्त	-9.50409
▁टेस्ट	-9.50455
लि	-9.50485
▁पत्रिका	-9.50546
▁जुड़ा	-9.50569
टन	-9.50701
▁गुप्त	-9.50747
▁जांच	-9.50747
▁लि	-9.50802
▁कै	-9.50864
▁विद्रोह	-9.50899
▁ज	-9.51056
▁सुंदर	-9.51065
ियो	-9.51118
▁दिये	-9.51142
▁प्रतीक	-9.51186
▁सेंट	-9.51201
▁रख	-9.51374
▁ज्यादातर	-9.5146
▁सर्वोच्च	-9.51482
▁लड़ाई	-9.51639
S	-9.51651
▁विद्वानों	-9.51757
▁श	-9.51793
▁विक्रम	-9.51807
▁सीधे	-9.51876
▁संभावना	-9.51889
▁शारीरिक	-9.51913
▁ग्रन्थ	-9.51923
▁2013	-9.51952
▁किले	-9.51995
▁उत्पत्ति	-9.52016
▁शांति	-9.52019
▁प्रतिक्रिया	-9.52056
▁पारंपरिक	-9.52094
▁बि	-9.521
मे	-9.52156
▁आलोचना	-9.52229
▁पदार्थों	-9.52285
▁उनसे	-9.52288
▁बेहतर	-9.52362
▁सो	-9.52438
▁सिस्टम	-9.52469
▁परीक्षा	-9.52496
▁माल	-9.52529
▁H	-9.52599
▁तेजी	-9.52718
▁वित्तीय	-9.52787
▁भविष्य	-9.52915
er	-9.52978
▁माने	-9.52985
▁उचित	-9.53115
▁मिस्र	-9.5314
▁आन्ध्रप्रदेश	-9.53154
डे	-9.53231
▁समस्त	-9.5324
बे	-9.5325
▁समझ	-9.53274
▁आचार्य	-9.53312
▁सामना	-9.53339
क्	-9.53561
▁हैदराबाद	-9.53647
▁राशि	-9.53755
▁नियमित	-9.53771
▁विभाजन	-9.53817
▁इकाई	-9.53958
▁समझा	-9.54005
एल	-9.5421
▁ब्राह्मण	-9.54222
▁उपयुक्त	-9.54341
▁तत्कालीन	-9.54371
वाले	-9.54467
गर	-9.54496
B	-9.54602
▁केरल	-9.54711
गढ़	-9.54813
▁संधि	-9.54847
टर	-9.55212
▁किस	-9.55224
▁देखते	-9.55232
▁सम्मेलन	-9.5526
▁चलते	-9.55269
▁जय	-9.55292
▁गंभीर	-9.55305
▁दावा	-9.55367
▁निर्माता	-9.55418
▁अंक	-9.55814
▁एकमात्र	-9.55853
▁ब्रह्म	-9.55883
▁मिलने	-9.56
▁लंबे	-9.56014
19	-9.56031
style	-9.56069
▁लागत	-9.56152
▁जीता	-9.56249
▁पशु	-9.56279
▁कार्यालय	-9.5641
▁एच	-9.5648
▁अपेक्षा	-9.56525
▁पटना	-9.56533
▁अर्थात	-9.56548
▁सर्व	-9.56664
▁विवरण	-9.56696
▁मानना	-9.56752
▁कोलकाता	-9.56769
▁G	-9.56896
शन	-9.56929
▁विख्यात	-9.56997
▁लेखन	-9.57005
▁पर्यावरण	-9.57038
▁गुजरात	-9.57106
▁अर्थव्यवस्था	-9.57144
क्स	-9.57166
▁रखता	-9.57248
▁बोर्ड	-9.57263
रिया	-9.57345
▁प्रसाद	-9.57438
▁शुद्ध	-9.57463
▁पाने	-9.57524
▁78	-9.57527
▁जोखिम	-9.57545
▁लघु	-9.57566
▁भौतिकी	-9.57584
ण्ड	-9.57622
ै	-9.57625
▁युक्त	-9.57661
वार	-9.57675
▁2003	-9.57728
▁फ	-9.5783
लो	-9.57834
▁निकल	-9.57856
▁संचार	-9.57884
▁विविध	-9.58003
▁अंश	-9.58069
▁संचालन	-9.58191
यू	-9.58212
▁जीवित	-9.58258
▁जेल	-9.58277
▁मीडिया	-9.5834
▁The	-9.58346
▁अड्डा	-9.58373
▁ध्वनि	-9.58501
▁टीवी	-9.58506
▁ग्रामीण	-9.5853
▁गाँधी	-9.58645
ड़ा	-9.58654
▁2002	-9.58692
▁लंबी	-9.58698
▁संग्रहालय	-9.58709
▁प्रेरित	-9.58721
▁सभ्यता	-9.58808
▁संक्रमण	-9.58866
▁फैला	-9.58885
▁पेश	-9.58903
▁घटनाओं	-9.58907
▁मेट्रो	-9.58934
▁लगाने	-9.58934
▁वही	-9.58969
▁+	-9.58971
▁हृदय	-9.58993
▁फुट	-9.59
▁रिकॉर्ड	-9.59053
▁तकनीकी	-9.59094
भ	-9.59152
▁ढंग	-9.59167
▁बैंड	-9.59272
▁पुरानी	-9.59283
▁वेब	-9.59334
▁युवा	-9.59344
c	-9.59362
▁अप	-9.59364
▁कहलाता	-9.59382
▁लग	-9.59414
▁फूल	-9.5946
▁कोशिका	-9.59513
▁जान	-9.59592
▁वीडियो	-9.59604
रि	-9.59653
ार	-9.59691
▁सिद्धान्त	-9.59726
▁घरेलू	-9.59804
▁मूर्ति	-9.59823
▁मौत	-9.60016
▁राजवंश	-9.6008
m	-9.60176
▁मोबाइल	-9.60179
",	-9.60201
यर	-9.60237
▁आगरा	-9.60273
▁शायद	-9.60363
▁सितंबर	-9.60407
▁रखी	-9.60431
रू	-9.6049
▁2015	-9.60765
▁परिवर्तित	-9.60766
▁वर्णित	-9.60787
▁समूहों	-9.60903
o	-9.60911
▁अभि	-9.60962
▁सम्बंधित	-9.60983
▁कठिन	-9.60991
▁खाद्य	-9.61006
▁दिखाया	-9.6129
ेन	-9.6131
▁तीसरे	-9.61311
▁समुद्री	-9.61438
▁फरवरी	-9.61465
▁गूगल	-9.61599
डो	-9.61614
▁मां	-9.61627
॰	-9.61646
▁ब्लैक	-9.61685
▁29	-9.61688
▁भेजा	-9.61704
▁भ	-9.6189
▁परिसर	-9.61963
▁हजार	-9.62083
▁भार	-9.62086
▁शिकार	-9.62236
▁प्रवाह	-9.62243
▁नियंत्रित	-9.62337
▁कर्म	-9.62384
▁केन्द्रीय	-9.62389
p	-9.62399
बर	-9.62409
▁देवता	-9.62506
▁चर्चा	-9.62579
▁न्याय	-9.62584
कु	-9.62619
▁पुराना	-9.62691
ष	-9.62696
▁सप्ताह	-9.6299
▁वालों	-9.63001
▁अंग्रेजों	-9.63041
▁कार्बन	-9.63057
▁कहना	-9.63119
▁सेवाओं	-9.63149
▁नव	-9.63271
u	-9.63328
▁प्रतियोगिता	-9.63407
्र	-9.63431
▁सूक्ष्म	-9.63545
▁चुना	-9.63582
▁उपाधि	-9.63593
▁उर्दू	-9.63725
▁हालाँकि	-9.63801
िय	-9.63822
गत	-9.63863
▁जलवायु	-9.63943
▁उपरोक्त	-9.64032
▁द्वार	-9.64052
▁भावना	-9.64083
▁बाहरी	-9.64128
▁सम्पूर्ण	-9.64166
पाल	-9.64169
▁बीज	-9.64292
सु	-9.64369
▁पि	-9.64393
display	-9.64404
▁अमरीका	-9.64404
▁मस्तिष्क	-9.64469
▁इच्छा	-9.64501
▁विशेषता	-9.64531
▁पो	-9.64552
▁कनाडा	-9.64663
▁--	-9.6467
▁कराया	-9.64689
एन	-9.64725
▁खेलों	-9.64867
यो	-9.6487
▁एकल	-9.64929
▁गोल	-9.6498
▁जम्मू	-9.6504
▁मतलब	-9.65059
न्स	-9.65095
▁मुद्रा	-9.65188
▁आस	-9.65211
हम	-9.65243
▁कोशिकाओं	-9.65269
▁याद	-9.65282
कों	-9.65558
▁मानकर	-9.65602
दर	-9.65646
▁कर्नाटक	-9.65658
▁स्वर्ण	-9.65658
▁प्रभावी	-9.65729
▁दिवस	-9.65757
▁छोड़कर	-9.6589
सि	-9.65921
▁ऊंचाई	-9.65992
▁कह	-9.66021
▁पर्यटन	-9.66072
▁मै	-9.66171
▁सिनेमा	-9.66269
▁अरबी	-9.66329
▁तत्वों	-9.66333
बल	-9.66335
▁महासागर	-9.66447
▁क्षेत्रीय	-9.66533
▁आम्बेडकर	-9.66595
▁नही	-9.66609
▁is	-9.66649
पूर्व	-9.66679
▁पैमाने	-9.66694
▁माह	-9.66741
▁प्यार	-9.66801
▁केंद्रीय	-9.66819
▁साधन	-9.66994
▁विवाद	-9.67065
▁छात्र	-9.67114
▁यौगिक	-9.67158
b	-9.67181
▁हिमालय	-9.67228
▁पुन	-9.67279
M	-9.67318
▁दु	-9.67356
▁58	-9.67402
▁तेज	-9.67439
▁आनंद	-9.67467
कल	-9.6747
▁एक्स	-9.67488
▁1980	-9.67587
▁बनाये	-9.67608
▁गर्म	-9.67719
▁स्वर	-9.67785
▁वार्षिक	-9.67797
▁पौधों	-9.67809
▁हमें	-9.67961
▁संपूर्ण	-9.68062
▁मर	-9.68091
▁नये	-9.68115
▁महत्त्वपूर्ण	-9.68183
▁उनको	-9.68189
▁स्थायी	-9.68191
▁सिटी	-9.68265
▁ज़िले	-9.68499
▁समारोह	-9.68537
′′	-9.68539
▁वा	-9.68539
ेस	-9.6861
▁अच्छे	-9.68616
i	-9.68616
▁कल्पना	-9.68714
▁आत्मा	-9.68721
▁अपराध	-9.68763
▁भेद	-9.68829
बार	-9.68835
▁उद्यान	-9.69026
▁कलाकार	-9.69053
▁उपस्थिति	-9.69055
▁2016	-9.69191
▁छ	-9.69198
10	-9.69214
▁57	-9.69244
▁खंड	-9.69245
▁प्रत्यक्ष	-9.69263
▁आदर्श	-9.69275
▁आन्दोलन	-9.69359
▁जनरल	-9.69364
▁परिभाषित	-9.69375
▁*	-9.69387
▁सितम्बर	-9.69519
▁कैलेंडर	-9.69519
इन	-9.69554
▁जैव	-9.69583
▁कानपुर	-9.69716
▁चरित्र	-9.69872
▁मस्जिद	-9.69921
▁गा	-9.69932
ेट	-9.69941
मु	-9.69962
▁महाभारत	-9.69989
▁डॉ	-9.70022
▁प्रसारण	-9.70067
▁परि	-9.70196
▁खो	-9.70269
▁ग्रंथों	-9.70298
▁स्थिर	-9.70307
▁लाइन	-9.70369
▁आयोग	-9.70385
▁पुराण	-9.70431
में	-9.70449
▁गतिविधियों	-9.70512
▁जीवों	-9.70527
▁चलने	-9.70539
र्	-9.70541
▁वैदिक	-9.70703
▁शक्तिशाली	-9.7071
▁बा	-9.70711
▁समस्याओं	-9.70731
यां	-9.70757
मि	-9.7077
▁मंडल	-9.70804
▁कैसे	-9.70838
P	-9.70871
▁नियमों	-9.70879
▁चैनल	-9.70936
कारी	-9.70947
▁राजनैतिक	-9.71041
▁तुर्की	-9.711
▁N	-9.71224
▁प्रो	-9.71449
▁अधिकारियों	-9.71522
▁डाला	-9.71662
+	-9.71675
याँ	-9.71789
▁वर्ण	-9.71885
▁विदेश	-9.71974
▁खेती	-9.71989
▁पति	-9.72059
▁बर	-9.72278
▁ड	-9.72388
▁समर्पित	-9.72405
▁प्रश्न	-9.72613
स्त	-9.72618
▁बढ़ती	-9.72634
▁व्यावसायिक	-9.72726
▁कारणों	-9.72851
▁निगम	-9.72862
▁s	-9.72889
▁D	-9.72895
▁नदियों	-9.72911
▁T	-9.72935
▁जमा	-9.73036
▁बनता	-9.73084
▁करेगा	-9.73142
▁प्रतीत	-9.73397
▁बाबा	-9.7341
▁शाही	-9.73416
▁मित्र	-9.73487
▁साँचा	-9.73495
▁कंपनियों	-9.73504
▁31	-9.73772
▁रूसी	-9.73849
▁ज़्यादा	-9.73906
PM	-9.73931
▁गु	-9.73975
▁हमला	-9.74029
▁दूध	-9.74042
▁गणित	-9.741
▁सर्वप्रथम	-9.74111
▁मो	-9.74162
▁R	-9.74222
▁प्राप्ति	-9.74234
▁पहुंच	-9.74235
▁दुर्ग	-9.7424
ंक	-9.74263
▁रोड	-9.7442
▁बो	-9.7443
▁मसीह	-9.74446
▁ईरान	-9.74494
दास	-9.74557
▁अन्दर	-9.7466
▁पुल	-9.74663
▁फलस्वरूप	-9.74706
गु	-9.74756
▁दौर	-9.74822
▁आसानी	-9.74869
▁त्रि	-9.74981
▁सिख	-9.74982
▁जिनकी	-9.74994
शा	-9.75103
▁वैश्विक	-9.75247
▁दान	-9.75266
▁मिलाकर	-9.7529
▁अंततः	-9.75373
र्न	-9.75388
or	-9.75569
▁जयपुर	-9.75569
▁बीमारी	-9.75579
▁अनिवार्य	-9.75634
▁रोगी	-9.75906
▁व्यास	-9.76014
▁सत्र	-9.76173
▁रोक	-9.76199
▁सन्दर्भ	-9.76244
▁ट	-9.76269
▁पड़ती	-9.7629
▁बढ़ा	-9.76292
▁देकर	-9.76326
▁आंतरिक	-9.76375
▁शृंखला	-9.76411
▁बिक्री	-9.76502
▁पसंद	-9.76547
▁जटिल	-9.7659
D	-9.76597
▁सौर	-9.76625
▁संपत्ति	-9.76631
▁हल	-9.76642
्यु	-9.76668
▁मानसिक	-9.767
▁तय	-9.76759
▁दास	-9.76803
▁बिंदु	-9.76946
▁पड़	-9.76989
l	-9.77034
▁मनाया	-9.77106
▁ठोस	-9.77143
▁जाकर	-9.77163
निक	-9.77178
▁जमीन	-9.77239
कृत	-9.7728
▁धारण	-9.77287
ची	-9.77292
▁आकर	-9.77306
▁अन	-9.77367
▁स्नातक	-9.77513
▁लंबाई	-9.7762
▁तीव्र	-9.77629
▁आपको	-9.77669
▁मजबूत	-9.77685
▁मिश्रण	-9.77714
▁दर्ज	-9.77734
पू	-9.77896
▁पात्र	-9.77933
िनी	-9.77961
▁यूनाइटेड	-9.77966
20	-9.77998
th	-9.78023
L	-9.78093
',	-9.78103
▁रोम	-9.7812
▁परम	-9.7813
रस	-9.7822
▁निकाले	-9.78221
▁जरूरत	-9.78227
▁लिखित	-9.78258
▁दिसंबर	-9.78317
▁भुगतान	-9.78356
▁प्रसार	-9.78433
▁लकड़ी	-9.78495
▁भौगोलिक	-9.78516
▁सैनिकों	-9.78565
▁वै	-9.78574
▁कार्ड	-9.7864
्ड	-9.787
▁V	-9.78803
▁आरोप	-9.78895
▁लाया	-9.78928
▁महाराज	-9.78954
▁मुगल	-9.7902
▁सुल्तान	-9.79131
▁गृह	-9.79163
▁अनुपात	-9.79169
▁इटली	-9.79173
ॅ	-9.79221
वान	-9.79288
▁K	-9.79344
▁साबित	-9.79356
▁अपेक्षाकृत	-9.79444
▁शीर्षक	-9.79487
▁0	-9.79521
▁उपग्रह	-9.79611
▁पाठ	-9.79674
▁चयन	-9.79701
▁जेम्स	-9.79726
रु	-9.7976
▁ऊँचाई	-9.79771
▁हा	-9.79837
छ	-9.79861
▁उपयोगी	-9.79861
चर	-9.79928
लर	-9.79966
▁2.	-9.7997
▁मानी	-9.80037
▁1947	-9.80095
▁नगला	-9.80101
▁जातियों	-9.80128
लाल	-9.80151
▁अभाव	-9.80158
F	-9.80172
▁नारायण	-9.80173
▁इमारत	-9.80259
▁तभी	-9.80313
ेर	-9.80328
▁इतनी	-9.80365
▁नेशनल	-9.80373
r	-9.80622
▁1.	-9.80659
▁तीनों	-9.80755
▁नेहरू	-9.80773
▁उपकरणों	-9.80784
▁रो	-9.80817
▁बिजली	-9.80825
▁तीसरी	-9.80836
▁वाराणसी	-9.8086
▁यहीं	-9.80865
▁आकर्षित	-9.8091
▁मुख	-9.81007
▁पुरुषों	-9.81036
▁f	-9.81041
▁दिल	-9.81055
▁मुरादाबाद	-9.81131
▁1960	-9.81246
▁परिवहन	-9.81261
▁रखना	-9.81266
▁बनाते	-9.8127
▁परिभाषा	-9.81485
▁E	-9.81486
चा	-9.81536
▁60	-9.81563
▁स्मृति	-9.81759
▁चूंकि	-9.81766
▁जीन	-9.81791
▁वृक्ष	-9.818
▁राजाओं	-9.81802
▁विरोधी	-9.81822
▁भक्ति	-9.81879
▁रन	-9.81884
ही	-9.82022
▁प्रारम्भ	-9.82033
र्क	-9.82064
कि	-9.82066
→	-9.82122
▁मंत्रालय	-9.82168
▁मराठी	-9.82193
▁गुणों	-9.82204
▁निभाई	-9.82254
▁बदलाव	-9.82319
▁1999	-9.82328
टो	-9.82338
करण	-9.82343
▁संदर्भ	-9.82427
▁हद	-9.82449
▁वेद	-9.82491
▁साहित्यिक	-9.82501
ल्	-9.8254
▁खगोल	-9.82585
▁निर्देशक	-9.8263
▁जंक्शन	-9.82685
▁करे	-9.82751
ौ	-9.82762
▁लो	-9.82816
▁छात्रों	-9.82978
हर	-9.83003
वाली	-9.83038
▁अस्पताल	-9.8329
▁अक्षर	-9.83326
▁पेड़	-9.83339
▁द्रव	-9.83348
▁विद्वान	-9.83399
▁यूनानी	-9.83417
िल	-9.83473
=	-9.83475
in	-9.83501
▁W	-9.83594
▁आग	-9.83619
्त	-9.83699
▁पहुंचती	-9.83809
▁इंडियन	-9.83832
युक्त	-9.83859
▁अधिकतम	-9.83931
▁1970	-9.84018
खा	-9.84029
▁अकबर	-9.8405
▁चली	-9.84066
धीरे	-9.84165
▁लेना	-9.84236
▁निवेश	-9.8425
▁काफ़ी	-9.84396
▁अग्नि	-9.84543
▁सर्वेक्षण	-9.84549
ख़	-9.84797
▁यंत्र	-9.84811
▁200	-9.84857
▁अशोक	-9.8487
▁कलियुग	-9.85006
▁हाउस	-9.85061
तम	-9.85106
▁करवाया	-9.85119
▁)	-9.85229
▁जानी	-9.85341
▁मी	-9.85348
ाव	-9.8539
30	-9.85395
▁दैनिक	-9.85436
▁परिस्थितियों	-9.85471
ic	-9.85481
▁सामान	-9.85511
▁विविधता	-9.85592
▁विधायक	-9.85604
▁गुणवत्ता	-9.85632
▁नवंबर	-9.85639
▁प्रजातियों	-9.85704
▁चुने	-9.85707
ान	-9.85716
k	-9.85718
▁m	-9.85721
us	-9.85745
▁तृतीय	-9.85765
-1	-9.85786
▁वर्गीकरण	-9.85903
वां	-9.85974
▁एल्बम	-9.86079
▁सामान्यतः	-9.86126
▁होंगे	-9.86128
▁लिंग	-9.86167
▁जाय	-9.86279
यें	-9.86308
▁त्वचा	-9.86327
▁स्पेन	-9.86349
▁दार्शनिक	-9.86387
▁मोटर	-9.86445
▁भाषाएँ	-9.86519
▁ऊपरी	-9.86527
▁शर्मा	-9.86612
▁चलती	-9.86619
शास्त्र	-9.86708
▁टूर्नामेंट	-9.86826
ल्स	-9.86892
▁किंगडम	-9.87148
लैंड	-9.87255
▁मंगल	-9.87294
▁छत्तीसगढ़	-9.87356
▁रु	-9.87402
▁शिखर	-9.87469
▁आत्म	-9.87614
▁प्रेस	-9.87728
▁लौट	-9.87891
▁साहित्यकार	-9.88002
▁राजमार्ग	-9.8805
▁विद्या	-9.88057
हार	-9.88092
▁वैसे	-9.88136
▁श्रीलंका	-9.88145
▁लोकसभा	-9.88181
डि	-9.88205
ly	-9.88265
▁बनाकर	-9.88284
ां	-9.88292
▁औपचारिक	-9.88383
▁खाने	-9.88395
▁वितरण	-9.88411
▁विलियम	-9.88446
T	-9.88484
▁अवधारणा	-9.88499
▁स्टार	-9.88581
▁तारे	-9.88627
▁खेला	-9.88638
▁सिद्धांतों	-9.88647
▁जहाज	-9.88767
▁गेम	-9.88772
चे	-9.88844
▁बनाता	-9.8885
▁वर्ल्ड	-9.8887
▁आपूर्ति	-9.88917
▁निवासी	-9.88928
▁हटा	-9.88954
वल	-9.88957
▁सलाह	-9.88965
▁पदक	-9.88975
▁अन्त	-9.88976
▁नो	-9.89016
▁बाकी	-9.89088
H	-9.89192
▁कदम	-9.89244
ऊ	-9.89381
▁गिर	-9.89405
▁लाने	-9.89413
▁फोन	-9.89448
▁भा	-9.89459
▁तारों	-9.8948
▁इंजीनियरिंग	-9.89495
▁हस्ताक्षर	-9.89519
▁जु	-9.89529
टे	-9.89611
▁तारा	-9.89666
▁प्रतिनिधि	-9.89673
▁हि	-9.89686
▁अध्याय	-9.89706
▁1950	-9.89767
▁अभिनेत्री	-9.89905
॥	-9.89949
ंत	-9.90018
▁यानि	-9.90145
▁रोकने	-9.90175
▁यात्री	-9.90204
▁संस्थापक	-9.90218
f	-9.90269
▁बचपन	-9.90272
▁पुष्टि	-9.90313
▁विकल्प	-9.90359
▁पट्टी	-9.90366
▁पहुंचा	-9.90386
लू	-9.90401
दान	-9.90407
▁विज्ञापन	-9.90633
शी	-9.90655
▁कम्पनी	-9.90672
गंज	-9.90707
▁अभ्यास	-9.90721
▁हाथों	-9.90729
▁फ़रवरी	-9.90751
▁शराब	-9.90753
▁समाधान	-9.90965
▁व्यक्तित्व	-9.9106
▁खर्च	-9.91073
▁प्रेरणा	-9.9109
▁गवर्नर	-9.91096
▁मुसलमानों	-9.91167
▁पौधे	-9.91196
▁35	-9.9122
▁त्याग	-9.91313
▁बु	-9.91371
▁काशी	-9.91383
▁प्रगति	-9.91459
▁महाराजा	-9.91468
▁1998	-9.9161
▁रिलीज़	-9.91645
▁फीट	-9.91757
▁उच्चारण	-9.91818
▁तथ्य	-9.91837
▁80	-9.91882
▁ति	-9.91934
▁उत्पादों	-9.92004
AM	-9.92022
▁डर	-9.92056
▁न्यूयॉर्क	-9.92062
ॉ	-9.9211
▁जूलियन	-9.92404
▁मल	-9.92457
तः	-9.92471
▁निरंतर	-9.92523
▁असम	-9.92541
था	-9.92601
▁किरदार	-9.92619
▁पृथ्वीराज	-9.92668
▁बढ़ावा	-9.928
▁आइ	-9.92842
▁मशीन	-9.92899
▁कक्षा	-9.92902
▁अल्मोड़ा	-9.92928
▁जोड़ा	-9.9296
▁शा	-9.93171
▁लगती	-9.93211
▁नुकसान	-9.93362
▁सारी	-9.93401
▁अर्थशास्त्र	-9.93402
दे	-9.93423
ेशन	-9.93456
▁ऋषि	-9.93553
▁तीसरा	-9.93652
▁स्त्री	-9.93668
▁हाइड्रोजन	-9.93771
▁शंकर	-9.93773
▁नयी	-9.93775
▁हुये	-9.93787
▁बेटे	-9.93799
▁बढ़ने	-9.93827
▁2017	-9.93842
▁हमले	-9.93851
▁मुझे	-9.93852
▁चाहता	-9.93863
▁तरल	-9.93936
मर	-9.93963
हे	-9.94041
▁सुन्दर	-9.9412
▁तीर्थ	-9.94131
▁इंच	-9.94154
▁चौ	-9.94223
दो	-9.94302
▁निकाला	-9.9432
▁लिखने	-9.94441
▁ऋण	-9.94464
▁मथुरा	-9.94518
▁शासकों	-9.94536
▁महसूस	-9.94584
▁उड़ान	-9.94585
▁फुटबॉल	-9.94585
▁गौतम	-9.94586
ाबाद	-9.94607
▁कानूनी	-9.94626
▁समझने	-9.94638
▁स्मारक	-9.94715
▁फ़िल्मों	-9.94754
▁आकर्षण	-9.94785
ेश	-9.94856
▁चंद्र	-9.94888
▁प्रतिमा	-9.9511
▁समानता	-9.9512
▁उत्	-9.95179
▁पारित	-9.95185
▁बेल	-9.95267
▁एयर	-9.95269
▁विक्रमी	-9.95287
▁शेर	-9.95333
बद्ध	-9.95341
▁सका	-9.95413
▁इलाज	-9.95434
▁सफेद	-9.95502
▁रखे	-9.95637
▁बिल	-9.9566
ेज	-9.95897
▁b	-9.96101
▁संस्कार	-9.96224
▁मुख्यमंत्री	-9.96246
ar	-9.96302
▁कराने	-9.96412
मल	-9.96449
▁कार्यक्रमों	-9.96456
▁डेटा	-9.96487
an	-9.96549
▁ता	-9.96554
वाला	-9.9657
्या	-9.96588
▁खाड़ी	-9.96593
तो	-9.96624
▁आहार	-9.96649
फ़र्ड	-9.96715
▁गलत	-9.96758
h	-9.96772
▁देवताओं	-9.96793
▁प्राणी	-9.96798
लेण्डर	-9.96884
▁मारे	-9.96971
▁आजकल	-9.9705
▁छूटत	-9.97063
▁पंच	-9.97106
▁वनस्पति	-9.97137
▁वर	-9.9715
O	-9.97171
▁इसको	-9.97198
▁दर्द	-9.97234
▁पक्षी	-9.97474
▁व्यापारिक	-9.97475
▁गाने	-9.97603
▁जॉर्ज	-9.97619
▁संदेश	-9.97705
▁प्रथा	-9.97753
तु	-9.97776
▁नवीन	-9.97787
▁द्रव्यमान	-9.97923
▁बढ़ाने	-9.9813
▁अन्तर्राष्ट्रीय	-9.98138
▁पुस्तकों	-9.98147
▁विकिरण	-9.98181
▁for	-9.98199
▁डाल	-9.98305
▁पं	-9.98305
फा	-9.98323
▁महात्मा	-9.98334
▁वाहन	-9.98412
मेंट	-9.98424
▁राव	-9.98472
▁परम्परा	-9.98618
▁मंदिरों	-9.98776
▁गईं	-9.9878
▁सुझाव	-9.98799
▁अमर	-9.98855
घ	-9.98995
▁करेंगे	-9.99
▁ऋतु	-9.99165
▁जाये	-9.9917
▁पंचाग	-9.99321
▁मह	-9.99328
▁पद्म	-9.99332
▁मिशन	-9.99336
▁संबद्ध	-9.99344
▁प्रबंध	-9.99372
▁अधिकारों	-9.99394
▁रूपों	-9.9956
▁सकें	-9.99678
पास	-9.99701
▁व्याकरण	-9.99712
▁निधन	-9.99799
पत्र	-9.99825
ड़ी	-9.99865
ाना	-9.99897
▁कृत्रिम	-9.9991
▁अनुकूल	-9.99914
▁द्वि	-9.99951
यु	-9.99993
▁ग्रीन	-9.99999
वाल	-10.0001
▁हूँ	-10.0007
▁इस्लामी	-10.0009
कर्ता	-10.001
▁सुख	-10.0015
▁बनाना	-10.0016
▁बदले	-10.0018
▁कोर्ट	-10.0021
▁रोगों	-10.0021
▁चाहे	-10.0025
▁रचनाओं	-10.0028
▁जि	-10.0028
▁जापानी	-10.0031
▁यज्ञ	-10.0031
ाय	-10.0035
▁होटल	-10.0045
▁बहन	-10.0049
▁पु	-10.0049
ल्ड	-10.0063
▁मिश्रित	-10.0069
▁अलीगढ़	-10.0071
▁यातायात	-10.0076
▁केंद्रित	-10.0078
शील	-10.0083
▁प्रयत्न	-10.0094
▁लिमिटेड	-10.0106
▁अव	-10.0106
▁तथापि	-10.0107
▁अर्जुन	-10.0107
▁स्कॉटलैंड	-10.0113
▁चार्ल्स	-10.0116
▁दर्जा	-10.0118
▁समीप	-10.0122
▁अनुरूप	-10.0124
▁री	-10.0125
on	-10.0126
▁प्रसारित	-10.0129
▁मद्रास	-10.013
▁पीढ़ी	-10.0133
▁किला	-10.0135
स्थ	-10.0139
V	-10.0152
मय	-10.0155
▁लगते	-10.0155
▁कल्याण	-10.0155
▁कण	-10.0156
▁कन्नौज	-10.0167
▁कि॰मी॰	-10.0169
▁शि	-10.0171
▁हिस्सों	-10.0177
▁जगत	-10.0177
▁निर्धारण	-10.0178
▁बाज़ार	-10.0182
▁लेखकों	-10.0185
ांग	-10.0186
भाव	-10.0189
▁आकाश	-10.0191
मेन	-10.0198
क्षेत्र	-10.02
▁खा	-10.0202
▁जोर	-10.0216
st	-10.023
G	-10.0234
ज़ा	-10.0236
▁वैज्ञानिकों	-10.0242
▁श्वेत	-10.0244
▁निर्देश	-10.0244
▁कठोर	-10.0251
▁p	-10.0254
भा	-10.0263
श्	-10.0264
▁चाहिये	-10.0276
▁पुणे	-10.0286
▁बारह	-10.0289
▁निर्वाचित	-10.0294
▁तुरंत	-10.0296
▁आयरलैंड	-10.0306
▁संबंधों	-10.0312
W	-10.0323
▁कर्मचारियों	-10.0323
▁वेल्स	-10.0329
25	-10.0332
▁जंगल	-10.0346
▁गोरखपुर	-10.0348
▁डा	-10.0352
▁पृष्ठ	-10.036
▁संगठनों	-10.036
▁दीवार	-10.0367
▁कारक	-10.0369
ास	-10.0392
▁शेयर	-10.0403
▁हॉल	-10.0413
▁निर्देशित	-10.0415
▁घनत्व	-10.0423
रों	-10.0424
▁प्रजनन	-10.0424
पि	-10.043
el	-10.0444
15	-10.0451
▁इसलिये	-10.0451
g	-10.0462
हीन	-10.0464
ंच	-10.0465
दि	-10.0466
▁उच्चतम	-10.0466
▁खराब	-10.0466
▁निकाल	-10.0471
▁दवा	-10.0481
▁श्रेय	-10.0483
▁गेंद	-10.0487
▁ओलंपिक	-10.049
re	-10.049
▁प्रोग्राम	-10.0491
▁रुचि	-10.0491
▁नैनीताल	-10.0493
▁पाकिस्तानी	-10.0493
▁चन्द्र	-10.0498
▁बंगाली	-10.0498
16	-10.0499
▁विलय	-10.0504
▁समझौते	-10.0507
▁मौलिक	-10.053
▁स्थलों	-10.0532
▁फैसला	-10.0532
▁निर्देशन	-10.0534
ुआ	-10.0543
▁L	-10.0546
▁डिजिटल	-10.0552
▁इलाकों	-10.0553
लोक	-10.0556
ग्	-10.0561
▁ताल	-10.0562
▁बसा	-10.0567
▁ऊँचा	-10.0573
▁हाई	-10.0576
▁निदेशक	-10.0577
_	-10.0579
▁शीघ्र	-10.058
▁यान	-10.0583
▁शिवाजी	-10.0585
▁देखकर	-10.0585
▁खनिज	-10.0588
▁हजारों	-10.0592
जि	-10.0595
▁पठार	-10.0604
▁मास	-10.0607
धा	-10.061
▁मेरे	-10.0619
▁मिश्र	-10.0622
▁मुक्ति	-10.0625
▁एफ	-10.0627
▁मादा	-10.0628
▁पतन	-10.0645
लिंग	-10.0647
▁देखी	-10.0649
▁पैर	-10.065
▁संयोजन	-10.0651
▁दा	-10.0652
पिता	-10.0654
क़	-10.0655
▁आविष्कार	-10.0658
▁अवश्य	-10.067
▁उत्कृष्ट	-10.067
▁हरियाणा	-10.0674
▁देखें	-10.0675
▁मंच	-10.0676
▁पंजाबी	-10.0679
▁अपनाया	-10.068
▁मछली	-10.0682
▁बालक	-10.0691
ोन	-10.0705
हि	-10.0705
▁कक्ष	-10.071
▁चित्रण	-10.0712
पो	-10.0715
▁c	-10.0717
▁3.	-10.0722
▁अदालत	-10.073
बो	-10.0733
▁पशुओं	-10.0743
▁लेती	-10.0752
पति	-10.077
▁धरती	-10.077
es	-10.0771
र्ड	-10.0785
▁प्रा	-10.0796
▁1991	-10.0799
▁नंबर	-10.0813
▁विद्यमान	-10.0813
▁एशियाई	-10.0814
जल	-10.082
▁क्यों	-10.082
▁जैविक	-10.0822
▁ख़ान	-10.0842
धर	-10.0845
▁टाइम्स	-10.085
▁चुनावों	-10.0851
▁तिब्बत	-10.0857
▁घाट	-10.0862
▁आध्यात्मिक	-10.0862
पे	-10.0877
▁प्रार्थना	-10.0885
▁पर्यटक	-10.0889
▁पौराणिक	-10.089
▁दंड	-10.0891
▁जातक	-10.0891
am	-10.0891
▁बाह्य	-10.09
▁1997	-10.0912
▁तिथि	-10.0917
▁दौरा	-10.0917
▁70	-10.093
▁बैठक	-10.0932
पश्चिम	-10.0937
▁महाद्वीप	-10.0944
▁आश्रम	-10.0944
शक्ति	-10.0945
▁500	-10.0947
▁पू	-10.096
▁प्लेट	-10.0962
▁सजा	-10.0975
▁लंबा	-10.0983
▁ईस्ट	-10.0984
▁काले	-10.0987
▁एक्सप्रेस	-10.0991
▁सुनिश्चित	-10.0999
▁नेताओं	-10.1002
▁रास्ते	-10.1002
सू	-10.1003
▁दोनो	-10.1011
▁दें	-10.1013
▁तनाव	-10.1015
▁कम्प्यूटर	-10.1016
▁बांध	-10.1019
▁पंडित	-10.1023
यी	-10.1031
ेड	-10.1033
▁शाम	-10.1034
▁बोलने	-10.1034
I	-10.1036
▁संज्ञा	-10.1038
▁इन्हीं	-10.1041
▁साहिब	-10.1042
et	-10.1043
गे	-10.1045
▁इस्पात	-10.1048
▁बेहद	-10.1048
▁लक्षणों	-10.1048
▁मुश्किल	-10.1053
▁व्यंजन	-10.1053
▁लाहौर	-10.1058
12	-10.1061
▁टेलीविजन	-10.1065
▁बुद्धि	-10.1071
पुरा	-10.1071
▁संकट	-10.1078
▁प्रतिष्ठित	-10.1079
सार	-10.1079
▁पुर	-10.1082
▁32	-10.1085
▁विजेता	-10.1087
▁विचारधारा	-10.1089
रण	-10.1094
ीकृत	-10.1101
ज़ी	-10.1106
▁टर्मिनल	-10.1106
▁स्थानांतरित	-10.1106
▁मुसलमान	-10.1107
▁बेटी	-10.1111
▁हेनरी	-10.1112
▁औ	-10.1113
▁सुपर	-10.1115
ीन	-10.1115
दु	-10.1116
▁थोड़ा	-10.1117
▁मैक	-10.1118
▁हानि	-10.1122
▁बाग	-10.1125
▁कड़ी	-10.1138
▁गीता	-10.114
▁शुरूआत	-10.1142
▁कल	-10.1146
▁संघीय	-10.115
निया	-10.1154
▁कबीर	-10.1166
▁आगमन	-10.1169
▁जल्द	-10.1172
▁इतने	-10.1174
▁जरूर	-10.1176
▁संग्राम	-10.1183
▁संस्थाओं	-10.1183
▁फ्रांसीसी	-10.1188
▁यानी	-10.1189
▁संहिता	-10.119
▁रहना	-10.1195
▁गरम	-10.1199
बर्ग	-10.1207
▁समृद्ध	-10.1223
▁प्राण	-10.1224
▁देखे	-10.1225
▁कब्जा	-10.1229
▁परिचय	-10.123
कालीन	-10.1239
▁तु	-10.1239
देश	-10.1244
▁प्रोटीन	-10.1251
डन	-10.1253
त्र	-10.1256
▁बस्ती	-10.1256
▁तार	-10.1257
▁जानवरों	-10.1258
म्प	-10.1269
▁न्यायाधीश	-10.1272
▁माप	-10.1276
▁वाणिज्यिक	-10.1277
▁नैतिक	-10.1298
-2	-10.1305
▁रुपये	-10.1309
▁जोड़	-10.1312
▁n	-10.1313
▁मैचों	-10.1318
▁दि	-10.1321
▁85.144	-10.1324
▁25.611	-10.1324
▁as	-10.1328
▁1996	-10.1332
en	-10.1339
▁झ	-10.1341
▁1992	-10.1343
▁होल	-10.1343
▁समीक्षा	-10.1346
▁मना	-10.1348
▁दोष	-10.1353
▁फैल	-10.1356
▁बुनियादी	-10.1357
▁पौड़ी	-10.1358
▁45	-10.1361
्ज़	-10.1362
▁राज्यपाल	-10.1369
▁मनुष्यों	-10.1369
▁आर्य	-10.1382
▁संक्षिप्त	-10.1389
▁तुम	-10.139
सम	-10.139
▁अग्रणी	-10.1391
ार्थ	-10.1393
▁अवतार	-10.1395
न्द	-10.14
▁पाये	-10.1401
▁वित्त	-10.1407
▁जुड़ी	-10.1409
▁उदय	-10.141
▁पर्व	-10.1414
गन	-10.1419
▁रॉक	-10.142
▁सुबह	-10.1428
▁गुना	-10.1435
सो	-10.1435
▁मांस	-10.1435
11	-10.1441
▁टन	-10.1448
▁कपूर	-10.1448
▁परस्पर	-10.1453
ियाई	-10.1457
▁थ	-10.1462
कला	-10.1463
म्ब	-10.1466
▁जल्दी	-10.1467
▁पर्यटकों	-10.1472
18	-10.1472
▁सेट	-10.148
▁1930	-10.1483
▁बनते	-10.1495
▁फा	-10.1497
बि	-10.1499
ढ़	-10.1506
▁फ्रेंच	-10.1506
▁सम्बन्धित	-10.1507
▁चि	-10.1514
▁गहरा	-10.1517
▁न्यूटन	-10.152
▁$	-10.1523
▁प्राणियों	-10.1524
▁जाँच	-10.1527
▁कैथोलिक	-10.1527
▁प्रभावशाली	-10.1532
▁शहरी	-10.1533
▁शक्तियों	-10.1539
र्ट	-10.1551
▁उन्नत	-10.1554
सेन	-10.1554
लिन	-10.1559
्व	-10.1563
▁सदा	-10.1564
▁दशा	-10.1565
▁कुरान	-10.1572
▁आदमी	-10.1577
▁संभवतः	-10.1579
▁आईसीसी	-10.1583
▁स्वामित्व	-10.1584
▁भेज	-10.1591
▁विरासत	-10.1593
▁गद्य	-10.1593
▁ध्वज	-10.1601
▁परंपरागत	-10.1602
▁जिम्मेदार	-10.1604
▁बह	-10.1606
▁ऑक्सीजन	-10.1613
▁पहाड़	-10.1614
▁आशा	-10.1614
▁बचा	-10.1617
▁निर्यात	-10.1619
▁बर्फ	-10.1624
▁निदान	-10.1629
▁सोने	-10.1632
35	-10.1633
▁पुष्प	-10.1637
▁नज़र	-10.1638
▁मनोरंजन	-10.164
▁स्टूडियो	-10.1644
पूर्वक	-10.1646
▁आंशिक	-10.1648
▁सेंटर	-10.165
▁हरा	-10.1651
▁आवास	-10.1655
50	-10.1655
हो	-10.1655
▁गण	-10.1656
▁be	-10.166
▁हिन्द	-10.1662
▁1995	-10.1672
▁संभावित	-10.1679
▁आपने	-10.168
▁1000	-10.1684
▁क्षति	-10.1689
▁पड़े	-10.169
▁बादशाह	-10.1698
▁अभिव्यक्ति	-10.1704
▁re	-10.171
x	-10.171
▁करनी	-10.171
▁लम्बी	-10.1711
▁प्रदेशों	-10.1713
▁सालों	-10.1717
▁मध्यम	-10.1718
▁प्रशंसा	-10.1719
ढ	-10.1721
▁वर्गों	-10.1722
▁रामायण	-10.1727
▁गहराई	-10.1735
न्न	-10.1737
▁मशहूर	-10.1738
▁रीति	-10.1741
▁असफल	-10.1741
▁ज्योतिष	-10.1744
▁चावल	-10.1753
▁चिह्न	-10.1755
▁उद्योगों	-10.176
▁धारणा	-10.1763
▁यु	-10.1763
▁जितना	-10.1766
▁निष्कर्ष	-10.1769
▁उत्तराधिकारी	-10.1769
17	-10.1773
▁जिलों	-10.1775
▁स्टेट	-10.1778
▁बहुमत	-10.1779
▁टू	-10.178
▁यथा	-10.1784
▁ध	-10.1785
▁सृष्टि	-10.1792
ंज	-10.1795
▁यहूदी	-10.1795
q	-10.1798
▁सम्	-10.1799
▁रत्न	-10.1799
▁सार	-10.1809
▁क्रमशः	-10.1811
▁कलकत्ता	-10.1813
न्त	-10.1817
▁काली	-10.1821
▁व्यावहारिक	-10.1822
▁पाठ्यक्रम	-10.1826
▁किताब	-10.1827
वाँ	-10.1832
▁कलाकारों	-10.184
▁प्रवृत्ति	-10.184
▁विशेषकर	-10.1843
▁व्	-10.1849
▁डिस्क	-10.1851
▁गायक	-10.1851
▁शुक्ल	-10.186
▁एड	-10.186
▁नायक	-10.1863
▁उम्मीद	-10.1865
▁लोगो	-10.1874
▁x	-10.1875
▁शून्य	-10.1877
डर	-10.1878
▁रोगियों	-10.1879
वेल	-10.1881
▁छः	-10.1884
▁विभक्त	-10.1888
ेल	-10.1891
▁घ	-10.1891
लु	-10.1894
▁भक्त	-10.1895
▁शिक्षण	-10.1895
▁चलाने	-10.1901
▁साक्षरता	-10.1907
▁;	-10.1908
▁प्रोफेसर	-10.191
▁दर्शकों	-10.1912
▁आवाज	-10.1913
▁पड़ी	-10.1915
▁राष्ट्रों	-10.1917
▁वस्त्र	-10.1921
▁मठ	-10.1922
▁was	-10.1922
▁रा	-10.1924
धर्म	-10.1926
▁समकालीन	-10.1927
अर	-10.1927
▁प्रतिभा	-10.1935
▁चलकर	-10.1939
le	-10.1948
नेट	-10.195
▁संप्रदाय	-10.1951
▁मेरी	-10.1953
▁संशोधन	-10.1963
▁खरीद	-10.1963
▁मैन	-10.1969
ग़	-10.1969
▁अल्प	-10.197
▁जंगली	-10.1976
▁सेवन	-10.1978
▁पेट	-10.1984
िश	-10.1985
एच	-10.1986
▁सचिव	-10.1991
▁de	-10.1994
▁जवाब	-10.2002
▁अर्	-10.2006
▁संस्थानों	-10.2007
▁अहमद	-10.202
▁हाथी	-10.202
▁आपके	-10.2023
▁दरबार	-10.2023
▁मगध	-10.203
▁निर्देशांक	-10.2031
▁1962	-10.2036
▁इलाके	-10.204
▁दाब	-10.2043
▁मंत्र	-10.2052
▁मुताबिक	-10.2058
▁गर्भ	-10.2067
कुल	-10.2071
▁जिनसे	-10.2074
▁मनोविज्ञान	-10.2076
▁परत	-10.208
श्री	-10.2083
▁बसे	-10.2085
▁पै	-10.2087
▁अवशेष	-10.2089
▁खिलाड़ियों	-10.2105
▁ग्रीक	-10.2107
▁सकारात्मक	-10.2113
▁स्वभाव	-10.2114
▁गणेश	-10.212
▁बहती	-10.2124
▁उठा	-10.2124
ादि	-10.2125
योग	-10.2126
चि	-10.2126
▁1971	-10.2127
▁कोरिया	-10.2128
शि	-10.2134
▁अफ़्रीका	-10.2135
▁इसीलिए	-10.2136
▁by	-10.2137
28	-10.2138
▁सदन	-10.2138
▁स्टेडियम	-10.2142
▁संपन्न	-10.2144
ूर	-10.2148
▁रहस्य	-10.2148
सिस	-10.2149
स्क	-10.2158
▁90	-10.2158
▁अर्ध	-10.2158
स्टर	-10.2163
▁डेविड	-10.2166
▁वजन	-10.2173
▁हरि	-10.2178
▁मोहम्मद	-10.219
▁शास्त्रीय	-10.2191
▁कर्ण	-10.2192
▁दौरे	-10.2193
▁छोर	-10.2198
▁U	-10.2198
▁बम	-10.22
▁सहारा	-10.2204
▁पथ	-10.2205
▁कौन	-10.2212
▁हिल	-10.2213
▁अणु	-10.2216
▁संगम	-10.2221
▁प्रयासों	-10.2222
ट्स	-10.2226
िस्ट	-10.2229
▁नौसेना	-10.223
▁मौजूदा	-10.2233
▁78.06	-10.2233
▁बोल	-10.224
▁कमजोर	-10.2241
40	-10.2241
▁अड्डे	-10.2242
▁पराजित	-10.2242
▁27.89	-10.2246
▁पंचायत	-10.2246
भाग	-10.2252
▁ज़	-10.2259
▁निहित	-10.2263
▁O	-10.2267
▁पकड़	-10.2274
▁समा	-10.2278
भूमि	-10.2279
▁तरीकों	-10.2279
▁कर्मचारी	-10.2279
ent	-10.2281
▁ऑनलाइन	-10.2284
ंडा	-10.229
▁भूषण	-10.2292
▁आंध्र	-10.2295
▁चलाया	-10.2297
▁1994	-10.2301
ाकार	-10.2304
▁आपस	-10.2304
▁चिकित्सक	-10.2307
▁अत्यन्त	-10.2313
▁पुत्री	-10.2313
पु	-10.2315
भिन्न	-10.2317
▁प्रक्रियाओं	-10.2323
▁पुस्तकालय	-10.2327
▁अधि	-10.2331
▁नाग	-10.2337
▁श्रम	-10.2338
▁सैन	-10.2339
टिंग	-10.2345
▁कार्यरत	-10.2348
▁आरंभिक	-10.2351
▁टाउन	-10.2353
▁फाइनल	-10.2354
▁उपयोगकर्ता	-10.2354
▁नामों	-10.2358
▁रॉयल	-10.2358
जु	-10.236
▁इं	-10.2361
▁कवियों	-10.2364
▁बंदरगाह	-10.2365
▁बनती	-10.2365
▁जड़	-10.2368
▁नागरिकों	-10.2368
▁कार्यकाल	-10.2368
▁लॉ	-10.237
▁संसाधन	-10.2379
ंद	-10.239
▁दुर्गा	-10.2398
▁वाक्य	-10.2405
▁तमिलनाडु	-10.2405
▁अंतर्	-10.2406
▁गुरू	-10.2413
▁नील	-10.2416
▁फारसी	-10.2419
यन	-10.2421
टि	-10.2423
▁पृथक	-10.2431
▁वेग	-10.2434
▁प्रताप	-10.2434
▁यौन	-10.2435
▁मानवीय	-10.2436
▁प्रोत्साहित	-10.2443
बाई	-10.2445
▁कमल	-10.2445
▁रेड	-10.2445
णी	-10.2445
ड़े	-10.2451
▁प्रतिरोध	-10.2454
▁पुस्तकें	-10.2454
▁स्तंभ	-10.2459
▁पाते	-10.246
▁ईंधन	-10.2467
▁कीमत	-10.2473
राव	-10.248
▁निकलने	-10.2481
▁शासनकाल	-10.2487
▁डच	-10.249
it	-10.2492
▁क्रमश	-10.2496
ोस	-10.2506
▁सहज	-10.2518
▁महाविद्यालय	-10.2522
▁पुनर्	-10.2526
ाल	-10.2536
▁कृति	-10.2537
▁वेस्ट	-10.2543
कर्म	-10.2543
▁लैटिन	-10.2546
▁शिष्य	-10.2548
▁राजकुमार	-10.2551
▁ज़िला	-10.2561
वो	-10.2566
▁छवि	-10.2574
▁छत	-10.2585
▁घास	-10.2586
▁खड़े	-10.2586
ल्ला	-10.2589
ia	-10.259
▁भाँति	-10.2596
▁समझौता	-10.2598
अप	-10.2606
ऐ	-10.2611
▁योग्यता	-10.2612
▁प्रयोगशाला	-10.2615
▁जोकि	-10.2617
▁इतिहासकार	-10.2621
▁सारा	-10.2624
▁नमक	-10.263
न्ट	-10.2633
▁कपड़े	-10.2633
गल	-10.2633
▁बचाने	-10.2634
▁घिरा	-10.2634
R	-10.2636
▁अंगों	-10.264
▁उत्सव	-10.2644
नर	-10.2652
{	-10.2667
▁बदला	-10.2669
▁असर	-10.267
▁that	-10.2671
▁देर	-10.2678
▁नजर	-10.2679
▁हास्य	-10.2681
▁उत्तम	-10.2682
▁विकिपीडिया	-10.2684
▁1989	-10.2685
▁बढ़ता	-10.2686
▁1948	-10.2689
▁तर	-10.269
▁बताते	-10.269
णा	-10.2692
भारतीय	-10.2692
▁सुल्तानपुर	-10.2712
▁साक्षात्कार	-10.2716
▁आवृत्ति	-10.2733
▁प्रणालियों	-10.2736
▁नियुक्ति	-10.274
▁पहुँचा	-10.274
▁किसान	-10.2742
▁यांत्रिक	-10.2743
▁खत्म	-10.2745
▁1956	-10.2746
त्य	-10.2752
▁बांग्ला	-10.2753
com	-10.2753
▁शिशु	-10.2755
▁मोर	-10.276
▁व्रत	-10.276
▁प्रबल	-10.2762
▁जीतने	-10.2764
▁स्नान	-10.2765
▁धारावाहिक	-10.277
▁कार्बनिक	-10.2771
▁टूट	-10.2773
▁बहादुर	-10.2776
▁सुविधाओं	-10.2777
▁चोट	-10.2777
▁बोस	-10.2778
▁घटक	-10.278
▁खाते	-10.2781
रत	-10.2789
क्ष	-10.2789
▁महीनों	-10.2791
▁कहता	-10.2798
▁4.	-10.2804
▁विस्फोट	-10.2806
▁हिसाब	-10.2807
▁संरक्षित	-10.2808
▁कार्यकारी	-10.2809
14	-10.281
▁प्रजाति	-10.2812
▁चिंता	-10.2818
▁इन्	-10.282
▁कहानियों	-10.2826
भाषा	-10.2829
\	-10.283
▁अमेरिकन	-10.2831
▁पीड़ित	-10.2835
▁कही	-10.284
समय	-10.285
झ	-10.285
▁अफ्रीकी	-10.2851
▁with	-10.2852
▁गर्मी	-10.2854
▁भरा	-10.2869
▁हमारी	-10.287
▁सेवाएं	-10.287
▁2018	-10.2871
▁खुले	-10.2872
▁कैरियर	-10.2873
▁कृष्णा	-10.2877
लिया	-10.2879
as	-10.2884
कोट	-10.2886
▁मापन	-10.2892
▁न्यूनतम	-10.2895
▁खाना	-10.2896
▁फसल	-10.2897
▁तोड़	-10.2898
▁टीमों	-10.2899
▁भूकंप	-10.29
है	-10.2901
▁पढ़ाई	-10.2907
▁सरस्वती	-10.2909
▁वैकल्पिक	-10.2913
▁शुष्क	-10.2918
▁300	-10.292
िड	-10.2926
▁शिल्प	-10.2926
▁बनाती	-10.2929
▁तंत्रिका	-10.2935
▁सोच	-10.2937
▁आसान	-10.2939
▁अनुयायी	-10.2944
▁लोहे	-10.2945
▁समीकरण	-10.2946
▁साफ	-10.2949
▁गौरव	-10.2952
▁स्थितियों	-10.2956
▁पाल	-10.2958
▁घरों	-10.2963
▁हित	-10.2973
लै	-10.2983
▁श्रेष्ठ	-10.2986
▁खड़ा	-10.2986
▁चेतना	-10.2991
▁गोली	-10.301
27	-10.3012
▁समन्वय	-10.302
▁पड़ने	-10.3022
05	-10.3027
▁एकीकृत	-10.3027
▁समाप्ति	-10.3028
▁हनुमान	-10.3029
▁वास्तुकला	-10.3034
▁बनवाया	-10.3036
▁नौकरी	-10.304
▁लम्बे	-10.3044
मै	-10.3045
▁दुर्लभ	-10.3052
▁25.45	-10.3052
▁हु	-10.3052
्म	-10.3056
▁प्रस्तावित	-10.306
▁बॉक्स	-10.3062
▁ग्राहक	-10.3079
गण	-10.3079
▁कौशल	-10.3083
रिक	-10.3086
▁द्वीपों	-10.3086
▁1993	-10.3089
▁चाल	-10.3091
te	-10.3092
क्रम	-10.3097
▁हिम	-10.3097
▁एं	-10.3099
▁संपादक	-10.3104
▁टे	-10.311
बु	-10.3114
▁जायेगा	-10.3118
स्य	-10.3118
भि	-10.313
▁साथी	-10.3131
द्	-10.3132
▁बचने	-10.3141
▁रहीं	-10.3147
▁यमुना	-10.3147
▁25.15	-10.3147
▁मौर्य	-10.3147
▁बढ़ते	-10.3166
पाद	-10.3167
▁81.85	-10.317
▁निवासियों	-10.3177
▁लोकप्रियता	-10.3178
▁वक्त	-10.3186
▁हमीरपुर	-10.3197
ur	-10.3199
▁शुरुआती	-10.3204
ेन्द्र	-10.3213
घर	-10.3215
▁नींव	-10.3225
▁जनजाति	-10.3233
नाम	-10.3234
▁देखभाल	-10.3243
▁आकृति	-10.3247
▁मलयालम	-10.325
▁विकेट	-10.325
टिक	-10.3252
45	-10.3256
▁वर्गीकृत	-10.326
▁परिक्रमा	-10.3262
स्व	-10.3265
▁मूल्यांकन	-10.3271
▁तरीका	-10.3276
▁पेशेवर	-10.3277
वास	-10.3278
ंगे	-10.3279
▁शुल्क	-10.3284
▁डाटा	-10.3284
▁अंचल	-10.3285
▁इन्द्र	-10.3289
▁कुशल	-10.329
▁मुख्यत	-10.3291
▁कहलाते	-10.3294
▁भोपाल	-10.3295
▁आजादी	-10.3301
24	-10.3305
▁उन्हीं	-10.3305
▁75	-10.331
▁सहयोगी	-10.332
ॉन	-10.3321
▁विद्युत्	-10.3322
▁बिन्दु	-10.3332
ानी	-10.3334
▁ध्रुव	-10.3336
▁खूबसूरत	-10.3336
▁सूरज	-10.3338
▁उपाय	-10.3338
▁हस्तक्षेप	-10.334
▁माइकल	-10.3343
▁अमरीकी	-10.3352
▁पाता	-10.3354
फ़ा	-10.3356
ाइन	-10.3358
▁दूसरों	-10.3364
▁ऑन	-10.3367
▁उद्घाटन	-10.3373
▁जोड़ने	-10.3379
▁भय	-10.3387
▁फॉर	-10.3395
▁अनुबंध	-10.34
▁मालिक	-10.34
मार	-10.3415
▁सू	-10.3417
▁लगने	-10.342
िता	-10.3426
▁टि	-10.3429
▁150	-10.3429
▁वरिष्ठ	-10.3434
ri	-10.3437
▁मेला	-10.3439
▁संसदीय	-10.344
ोप	-10.345
▁ब्रह्मा	-10.3451
▁टैग	-10.3455
▁गुफा	-10.3457
▁बीमा	-10.3463
▁भव्य	-10.3464
▁अंग्रेज	-10.3467
▁विश्वयुद्ध	-10.3469
▁चरम	-10.3483
▁राजस्व	-10.3485
$	-10.3487
स्थान	-10.3492
नों	-10.3493
▁रास्ता	-10.3495
at	-10.3497
▁हरे	-10.3501
▁जानते	-10.3502
▁पायी	-10.3506
▁ब्लू	-10.3507
▁फ़	-10.3511
▁गाय	-10.3513
▁पक्षियों	-10.3516
▁टीका	-10.3518
▁J	-10.3519
▁रखती	-10.3524
▁अनुमानित	-10.3525
▁रै	-10.3529
▁संतान	-10.3538
▁बच	-10.3539
लेट	-10.3539
▁चा	-10.3539
▁अन्तिम	-10.3543
0,000	-10.3543
▁संवाद	-10.3551
कू	-10.3556
▁दवाओं	-10.3561
▁हिंसा	-10.3561
▁टाटा	-10.3562
विल	-10.3564
▁उपदेश	-10.3565
▁प्रिय	-10.3569
z	-10.3571
जर	-10.3579
▁पीठ	-10.3585
▁हथियार	-10.3588
▁बोलते	-10.3589
▁खतरा	-10.3591
▁समेत	-10.3594
▁जाया	-10.3599
▁आकर्षक	-10.3599
▁गठबंधन	-10.3599
▁बदलने	-10.3601
व्य	-10.3603
▁पोस्ट	-10.3604
▁भट्ट	-10.3604
▁अंकित	-10.3608
▁गयीं	-10.3615
▁चमक	-10.3615
ad	-10.3622
▁गिरावट	-10.3628
▁अक्षांश	-10.3628
▁स्वाभाविक	-10.3631
▁सरदार	-10.3631
▁फ़ारसी	-10.3632
▁नाथ	-10.3634
▁लु	-10.3635
▁मजबूर	-10.3637
ाया	-10.3638
▁नागपुर	-10.3641
बन	-10.3645
▁संसाधनों	-10.3655
▁सीता	-10.3659
▁अकेले	-10.3666
▁सीमाओं	-10.3668
ta	-10.367
▁दर्शाया	-10.3676
▁बॉलीवुड	-10.3681
▁गतिविधि	-10.3684
▁काउंटी	-10.369
▁उसको	-10.3692
▁खोल	-10.3694
त्मक	-10.3697
▁पाप	-10.3702
▁!	-10.3709
▁उपमहाद्वीप	-10.371
▁1972	-10.371
▁उन्हे	-10.3717
्री	-10.3722
▁पोर्ट	-10.3724
नु	-10.3726
स्प	-10.3732
▁तुर्क	-10.3743
▁शास्त्री	-10.3744
▁d	-10.3747
▁परिषद्	-10.3747
▁डो	-10.3753
▁सबूत	-10.3754
55	-10.3755
▁काला	-10.3758
▁हुईं	-10.3759
▁बै	-10.3763
▁जातियाँ	-10.3766
▁मुम्बई	-10.3769
▁शांत	-10.377
▁पेरिस	-10.3771
▁वर्मा	-10.3771
".	-10.3773
▁नवाब	-10.3777
▁नीतियों	-10.3777
-19	-10.3777
▁गहरी	-10.3783
▁साहब	-10.3788
▁कोश	-10.3789
▁on	-10.3791
...	-10.3793
▁घायल	-10.3797
▁इंटर	-10.3797
▁लक्ष्मी	-10.3798
्ट	-10.38
फर	-10.3804
▁गुजराती	-10.382
शु	-10.3823
▁85	-10.3829
13	-10.3829
▁हुसैन	-10.3831
लिक	-10.3831
▁अकाल	-10.3834
▁तराई	-10.3847
मत	-10.3848
▁चर	-10.3852
▁खेलने	-10.3854
▁क़	-10.3859
ग्राम	-10.3861
▁ब्रांड	-10.3865
▁संगठित	-10.3869
▁अवस्थित	-10.3876
▁खड़ी	-10.3876
▁कायम	-10.3879
▁ग्रेट	-10.3891
▁महादेव	-10.3894
▁रू	-10.3896
▁1920	-10.3899
▁l	-10.3901
▁गिरफ्तार	-10.3901
▁चैम्पियनशिप	-10.3904
▁भूगोल	-10.3909
पद	-10.3914
▁ठाकुर	-10.3929
v	-10.393
▁चे	-10.3944
▁जीवाणु	-10.3945
▁खाँ	-10.3949
▁किसानों	-10.3955
▁पदों	-10.3956
ज्ञान	-10.3959
▁पूर्ति	-10.3963
▁निश्चय	-10.3963
▁लाइसेंस	-10.3963
▁अहमदाबाद	-10.3964
▁भीड़	-10.3965
▁शैक्षिक	-10.3969
प्रति	-10.3971
▁विशेषज्ञ	-10.3972
▁निकालने	-10.3972
▁उपभोक्ता	-10.3975
▁संतुलन	-10.3979
29	-10.3984
संग्रह	-10.3985
ावली	-10.3992
▁प्रचलन	-10.3993
▁मूलतः	-10.3994
कै	-10.3995
▁बोध	-10.3997
▁बातचीत	-10.3998
▁36	-10.4001
▁महाकाव्य	-10.4002
▁भरी	-10.4004
▁परामर्श	-10.4013
▁निकलती	-10.4019
ज्ञ	-10.4025
▁अल्	-10.4026
▁प्रधानमन्त्री	-10.4028
▁माँग	-10.4031
▁यूनिवर्सिटी	-10.4032
▁अंडे	-10.4034
रिस	-10.4034
▁जाएगी	-10.4042
▁उत्सर्जन	-10.4043
▁आदिवासी	-10.4045
▁नामकरण	-10.4046
थी	-10.4046
▁ग्राहकों	-10.4048
▁1984	-10.4068
▁सीट	-10.4072
23	-10.4073
▁विधियों	-10.4097
▁1965	-10.4099
▁रेस	-10.4106
▁थोड़ी	-10.4108
▁तरंग	-10.4109
▁दौड़	-10.4109
▁{	-10.4113
▁वंशज	-10.4115
▁व्यवस्थित	-10.4118
▁आवश्यकताओं	-10.4123
▁फे	-10.4123
▁जनपद	-10.4124
▁जुड़	-10.4125
▁पूंजी	-10.4126
▁कणों	-10.4127
▁मेरठ	-10.4128
▁पटेल	-10.4129
ट्ट	-10.4136
▁अज्ञात	-10.4138
सल	-10.4144
▁शाखाओं	-10.4144
जू	-10.4145
▁राजपूत	-10.4151
▁निचले	-10.4153
▁1952	-10.4159
▁पॉल	-10.4166
▁क्रियाओं	-10.4168
▁मैसूर	-10.4172
▁गोवा	-10.4173
▁धातुओं	-10.4184
▁इलेक्ट्रॉनिक	-10.4184
▁आधे	-10.4186
▁शुक्र	-10.4189
मार्ग	-10.4197
▁ज्वालामुखी	-10.4197
▁वेबसाइट	-10.4197
ाब	-10.4198
▁वायरस	-10.4199
▁समुदायों	-10.4204
ation	-10.4204
▁पार्श्व	-10.4205
▁नोबेल	-10.4209
▁भाषण	-10.4213
▁चौथी	-10.4221
▁मजरा	-10.4222
चित्र	-10.4223
▁संवैधानिक	-10.4229
▁मार्क	-10.423
▁नेपाली	-10.4231
▁1975	-10.4235
▁मगर	-10.4236
▁जीते	-10.4239
ुल	-10.4239
▁an	-10.4245
▁रिकार्ड	-10.425
▁प्रारूप	-10.425
्ता	-10.4251
▁उपर्युक्त	-10.4254
▁स्वीकृति	-10.4263
▁भर्ती	-10.4265
पट	-10.4267
▁पढ़ने	-10.4268
ान्त	-10.4276
और	-10.4278
▁चंडीगढ़	-10.428
ियम	-10.4283
▁34	-10.4283
▁रखकर	-10.4285
▁प्रतिबंध	-10.4288
▁एकत्र	-10.4294
▁अनुक्रम	-10.4298
▁कोण	-10.4298
▁अनुरोध	-10.4301
▁स्वस्थ	-10.4304
तक	-10.431
▁पहाड़ियों	-10.4311
▁होनी	-10.4314
▁भ्रूण	-10.4316
▁नी	-10.4319
▁चित्रों	-10.4329
वंश	-10.433
▁पहुंचने	-10.4346
पल	-10.4354
▁सुभाष	-10.4354
▁°	-10.4356
▁पूर्वोत्तर	-10.4357
▁स्ट्रीट	-10.4359
▁सांसद	-10.4359
▁जाल	-10.4366
▁कालेज	-10.4375
चक्र	-10.4377
च्छ	-10.4384
▁सिंचाई	-10.4388
▁विशेषताओं	-10.4398
▁विकार	-10.44
▁आयुर्वेद	-10.4401
▁सीरीज	-10.4407
▁खुला	-10.4409
w	-10.4416
ँग	-10.4422
▁चौथे	-10.4426
▁कागज	-10.4428
र्ग	-10.4429
▁उन्नति	-10.4429
▁बताता	-10.443
चार	-10.443
▁हिट	-10.4436
▁फैले	-10.4437
▁जातीय	-10.4439
▁दशकों	-10.4439
▁मौखिक	-10.4441
▁मानचित्र	-10.4443
महा	-10.4457
▁समग्र	-10.4457
▁यात्रियों	-10.4459
▁बचाव	-10.4462
▁ऑस्ट्रेलियाई	-10.4463
▁उपरांत	-10.4465
▁33	-10.4467
▁कं	-10.4472
▁हूं	-10.4473
▁कॉ	-10.4478
22	-10.4479
▁कथन	-10.4484
▁वचन	-10.449
▁जोधपुर	-10.4497
▁ऑ	-10.4497
ma	-10.45
▁1977	-10.4508
▁अर्जित	-10.4509
▁कहने	-10.4512
▁मोटे	-10.4515
िम	-10.4516
▁चित्रित	-10.4526
▁औरंगाबाद	-10.4528
▁कार्रवाई	-10.4533
▁अवार्ड	-10.4534
पार	-10.4537
▁बातों	-10.4538
▁1986	-10.4544
▁स्रोतों	-10.4548
मेल	-10.4552
वती	-10.4556
▁गहन	-10.4563
▁स्वर्ग	-10.4565
▁1957	-10.4565
▁जंगलों	-10.4567
▁ईसवी	-10.4573
▁साइट	-10.4579
."	-10.4579
▁विश्वविद्यालयों	-10.4583
▁बुलाया	-10.4587
▁सिंगापुर	-10.4593
▁मक्का	-10.4595
▁एकड़	-10.4595
08	-10.4596
▁पहुँचने	-10.4602
ून	-10.4603
▁दोस्त	-10.4605
▁चुनौती	-10.4606
डिया	-10.461
▁कारकों	-10.4611
▁ग्रुप	-10.4614
▁1967	-10.4618
▁दीवारों	-10.4619
▁कप्तान	-10.4622
▁प्रवाहित	-10.4623
▁आर्ट	-10.4626
▁ग्रहों	-10.4627
▁डिज़ाइन	-10.4628
▁न्यूजीलैंड	-10.4638
▁कहलाती	-10.4649
ेज़	-10.4657
▁फूलों	-10.4668
ro	-10.4668
▁आना	-10.4669
▁24.81	-10.467
▁निकला	-10.4671
▁एजेंसी	-10.4675
▁कौ	-10.4676
त्त	-10.4677
▁वैष्णव	-10.468
▁अद्भुत	-10.4681
▁ऊ	-10.4685
▁प्रीमियर	-10.4686
▁करा	-10.4695
्वा	-10.4706
साँचा	-10.4713
▁छा	-10.4715
▁वयस्क	-10.472
▁निशान	-10.4722
▁मेले	-10.4729
▁अमीर	-10.473
▁अग्र	-10.4738
26	-10.4749
▁are	-10.4755
▁प्रशांत	-10.4756
▁क्रांतिकारी	-10.4757
▁वें	-10.4763
▁मृत	-10.4763
▁अनुसरण	-10.4766
▁विपणन	-10.4771
▁1973	-10.4772
तंत्र	-10.4773
:-	-10.4778
▁प्रतिष्ठा	-10.4782
▁बजट	-10.4784
वर्ग	-10.4786
▁मुद्दों	-10.4788
▁उतना	-10.4788
▁भंडार	-10.4788
▁बीस	-10.4789
▁सुन	-10.479
▁गहरे	-10.4793
▁टो	-10.4802
द्र	-10.481
र्ज	-10.4812
▁प्रतिवर्ष	-10.4812
▁79.4	-10.4814
▁अनुप्रयोग	-10.4815
▁उपज	-10.4818
▁सड़कों	-10.482
▁छूट	-10.4821
▁उड़ीसा	-10.4825
ल्ल	-10.4826
▁बाढ़	-10.4826
▁विवेचन	-10.4828
▁वार	-10.4832
वै	-10.4833
▁मानने	-10.4834
▁खिताब	-10.4836
▁रुक	-10.4842
▁व्यापारी	-10.4843
▁सहमत	-10.4844
▁लाखों	-10.4846
यल	-10.4848
▁अगली	-10.4849
▁मिसाइल	-10.485
भर	-10.4851
▁कन्नड़	-10.4853
▁जानने	-10.4855
▁सवाल	-10.4856
▁अन्	-10.4857
▁प्रतिस्पर्धा	-10.4861
▁पीटर	-10.4869
▁मारा	-10.488
▁वोट	-10.4881
▁1857	-10.4886
फ्ट	-10.4892
▁नरेश	-10.4898
▁॥	-10.49
▁मैरी	-10.4905
▁रचनाएँ	-10.4908
▁जयसिंह	-10.4909
▁r	-10.4912
▁पृष्ठभूमि	-10.4912
▁द्वीपसमूह	-10.4913
▁सफलतापूर्वक	-10.4914
▁शती	-10.4917
▁गणतंत्र	-10.4918
▁कथाओं	-10.4921
U	-10.4921
▁गिनी	-10.4927
▁नगरों	-10.4931
▁महर्षि	-10.4933
▁सलाहकार	-10.4943
ेरा	-10.4946
▁ऑफिस	-10.4951
ण्ट	-10.4962
▁सोना	-10.4963
ात	-10.4966
▁1988	-10.4967
▁पुराणों	-10.4972
▁नकारात्मक	-10.4972
▁चरणों	-10.4973
▁नै	-10.4975
▁मुकाबले	-10.4977
▁आखिरी	-10.498
राय	-10.4981
▁कमाई	-10.4982
▁राजशाही	-10.4989
▁श्रेणियों	-10.4994
▁मोक्ष	-10.4994
▁दुर्घटना	-10.4996
एफ	-10.5001
op	-10.5003
▁अर	-10.5008
▁ऊँचे	-10.501
▁रंगों	-10.501
j	-10.5011
▁कहे	-10.5014
▁एकत्रित	-10.5015
ग्र	-10.5027
ंगी	-10.5032
▁कृत	-10.5034
▁मोहन	-10.5035
▁बंध	-10.5037
▁बिलियन	-10.504
वासी	-10.5041
मुख	-10.5043
▁परिवारों	-10.5043
मंडल	-10.5048
▁1985	-10.505
्टन	-10.505
धारी	-10.5057
im	-10.5058
र्थ	-10.5058
▁ग्रेगोरी	-10.506
▁बेस	-10.5061
▁समक्ष	-10.5061
परि	-10.5063
▁लेखों	-10.5064
▁शिक्षक	-10.5067
▁दलों	-10.5073
▁तालाब	-10.5073
फी	-10.5077
▁तीव्रता	-10.508
▁लगाए	-10.5088
▁प्रायद्वीप	-10.5089
▁सुर	-10.5091
▁खेले	-10.5092
ांक	-10.5099
K	-10.5104
▁नामित	-10.5107
▁बातें	-10.5108
▁1940	-10.5111
▁गीतों	-10.5113
▁बिल्कुल	-10.5115
▁मनोवैज्ञानिक	-10.5116
▁सहमति	-10.5121
▁समतल	-10.5121
तू	-10.5122
▁स्पर्श	-10.5122
▁रिलीज	-10.5124
वेद	-10.513
देवी	-10.5134
▁प्रतिदिन	-10.5134
▁प्रक्षेपण	-10.5144
▁चु	-10.5148
▁रोजगार	-10.5148
▁पल	-10.515
75	-10.5156
▁निकाय	-10.5158
21	-10.5161
▁लौह	-10.5163
▁काल्पनिक	-10.5166
▁मानता	-10.5168
▁5.	-10.5171
▁भूल	-10.5172
um	-10.5178
▁रात्रि	-10.519
▁मोदी	-10.5195
▁विष	-10.5196
▁गेट	-10.52
▁राधा	-10.5201
▁बोर	-10.5209
▁जोड़ी	-10.521
▁भागीदारी	-10.5218
▁वेदों	-10.522
▁वायुमंडल	-10.5223
▁पंक्ति	-10.5224
▁अनाज	-10.5228
▁भारतीयों	-10.5232
▁मोह	-10.5236
▁स्वाद	-10.5239
▁लिखते	-10.5241
ाचार्य	-10.5244
▁रामपुर	-10.5246
▁चमोली	-10.5249
▁प्रजा	-10.5253
नीय	-10.5254
जिन	-10.5254
▁विद्यार्थी	-10.5255
ष्ट	-10.5261
▁\	-10.5263
दर्शन	-10.5265
▁अल्लाह	-10.5268
▁वसा	-10.5273
▁शासित	-10.5273
▁श्रीकृष्ण	-10.5274
▁चौधरी	-10.5275
▁भिन्नता	-10.5275
▁क्रिस्टल	-10.5282
▁शैल	-10.5286
वुड	-10.5287
▁कन्या	-10.5287
▁अन्ना	-10.5291
▁शत्रु	-10.5299
▁रियासत	-10.531
▁फो	-10.5311
कार्य	-10.5312
000	-10.5312
▁एसोसिएशन	-10.5317
▁मोड़	-10.5318
ुर	-10.5319
▁अस	-10.5321
▁शनि	-10.5321
▁ऊँची	-10.5328
▁असामान्य	-10.5333
▁इनसे	-10.5338
▁द्रव्य	-10.5345
▁यादव	-10.5345
▁इंदिरा	-10.5346
▁दमन	-10.5348
▁नाटकों	-10.5348
▁अस्थायी	-10.5351
धान	-10.5356
▁गठित	-10.5368
▁ते	-10.537
ठा	-10.5371
▁इनको	-10.5376
क्रिया	-10.5376
▁मतदान	-10.5376
▁मूल्यों	-10.5377
ष्ठ	-10.5377
▁संपादन	-10.5379
▁पत्रकार	-10.538
ाक	-10.5383
ाऊ	-10.5388
▁शुभ	-10.5394
▁संदर्भित	-10.54
बिल	-10.5404
▁संशोधित	-10.5408
हु	-10.541
ाने	-10.5412
▁अभियांत्रिकी	-10.5414
▁केन्द्रित	-10.5414
▁अद्वितीय	-10.5414
▁h	-10.542
▁सटीक	-10.5421
ैया	-10.5422
▁टिप्पणी	-10.5422
ch	-10.5426
्क	-10.5433
▁In	-10.5434
▁वेतन	-10.5437
▁मारने	-10.5438
▁उपनगर	-10.5446
▁मेडिकल	-10.5448
▁सरकारों	-10.545
▁इब्न	-10.5454
▁संकलन	-10.5454
▁400	-10.5459
48	-10.546
▁महारानी	-10.546
90	-10.5462
▁आयात	-10.5463
▁तटीय	-10.5466
▁जिनमे	-10.5471
माला	-10.5474
37	-10.5478
▁संयंत्र	-10.548
▁बहस	-10.5482
▁परिणामों	-10.5483
▁प्रतापगढ़	-10.5483
ृ	-10.5491
03	-10.5498
िकी	-10.5501
फो	-10.5508
▁टाइम	-10.5512
▁लम्बाई	-10.5526
▁महत्त्व	-10.5528
▁लोहा	-10.5528
▁फतेहपुर	-10.553
दल	-10.553
सूत्र	-10.5534
▁तप	-10.5535
▁प्रावधान	-10.5537
▁इंदौर	-10.554
▁ख्याति	-10.5558
▁बाँध	-10.557
▁कोष	-10.5571
▁बाघ	-10.5571
यान	-10.5574
▁नेत्र	-10.5574
▁खण्ड	-10.5575
▁डॉक्टर	-10.5577
▁स्मिथ	-10.5583
िट	-10.5583
▁दिव्य	-10.5584
▁वापसी	-10.5587
सिल	-10.559
▁जानवर	-10.5593
▁at	-10.5594
▁ग्रन्थों	-10.5602
▁1987	-10.5605
▁किस्म	-10.5607
97	-10.561
▁एटा	-10.561
▁कवर	-10.5612
▁पुर्तगाली	-10.5618
▁55	-10.5619
▁मुनि	-10.562
हित	-10.5621
ेंट	-10.5623
▁निर्	-10.5623
▁प्रमाणित	-10.5625
िये	-10.5634
▁समर्थक	-10.5635
▁टा	-10.5636
▁कोटि	-10.5639
▁दिवसीय	-10.5641
ul	-10.5644
▁बरेली	-10.5645
is	-10.5645
▁कोर	-10.5648
▁विलयन	-10.5649
▁सिकंदर	-10.565
▁चुंबकीय	-10.5657
▁सेल	-10.566
▁नहर	-10.5661
▁सम्प्रदाय	-10.5676
▁पोप	-10.568
▁रॉबर्ट	-10.5682
स्तर	-10.5683
▁साधना	-10.5686
▁सेनाओं	-10.5688
ौर	-10.5691
95	-10.5692
▁सिविल	-10.5693
धन	-10.5697
43	-10.5697
31	-10.57
85	-10.57
▁एसिड	-10.5701
शे	-10.5703
ज़र	-10.5704
▁पहल	-10.5705
फल	-10.5706
मिल	-10.5713
▁कट	-10.5717
▁कल्प	-10.5719
▁अखिल	-10.5724
▁बेच	-10.5726
▁अचानक	-10.5727
▁संगीतकार	-10.5729
▁ओवर	-10.5733
▁खतरे	-10.5734
▁टै	-10.5737
▁सदस्यता	-10.5739
▁इंद्र	-10.574
माल	-10.5742
▁कमरे	-10.5743
▁1969	-10.5746
▁साझा	-10.5746
▁भोज	-10.5752
▁from	-10.5757
▁हराया	-10.5758
▁कैलंडर	-10.5762
▁उपनिवेश	-10.5763
▁||	-10.5764
▁नोट	-10.5766
▁उक्त	-10.5766
ंकी	-10.5769
▁चौक	-10.5769
▁विल	-10.5778
▁स्वतन्त्रता	-10.5778
▁मौका	-10.5779
▁सौंदर्य	-10.5779
▁ऊंची	-10.578
▁जौनपुर	-10.578
▁स्कूलों	-10.5782
▁निकलता	-10.5783
▁बलों	-10.5783
▁माइक्रो	-10.5786
▁सम्बन्धी	-10.579
▁शल्य	-10.5792
गांव	-10.5797
िस्तान	-10.5802
▁एडवर्ड	-10.5804
▁पड़ते	-10.5805
विक	-10.5807
▁टिकट	-10.5808
हरा	-10.5809
▁विभागों	-10.5814
चंद्र	-10.5814
▁किंग	-10.5816
▁पोषण	-10.5817
▁उपनाम	-10.5824
▁सीधा	-10.5827
▁हू	-10.5828
▁फैली	-10.5829
िकल	-10.5833
कथा	-10.5835
▁आनुवंशिक	-10.5835
▁इतिहासकारों	-10.5851
▁परियोजनाओं	-10.5851
▁UK	-10.5852
▁चाय	-10.5856
ाइल	-10.5858
▁पेय	-10.5862
ine	-10.5865
▁समावेश	-10.5866
▁पैलेस	-10.5873
प्स	-10.5873
▁बेन	-10.5874
▁वध	-10.5875
ष्	-10.5887
▁त्रुटि	-10.5897
▁घन	-10.5898
▁किलो	-10.5904
▁उपजिला	-10.5906
▁पिंड	-10.5913
▁धर्मों	-10.5915
▁छोड़ने	-10.5916
▁पैसे	-10.5916
स्ता	-10.5916
▁औषधि	-10.5916
न्ड	-10.5917
▁माध्यमिक	-10.5918
▁चंद्रमा	-10.5918
▁निगरानी	-10.5924
्रो	-10.5925
▁गरीब	-10.593
▁वाष्प	-10.5936
▁गणितीय	-10.5939
38	-10.5941
गर्मियों	-10.595
बू	-10.5951
तल	-10.5953
▁ज़मीन	-10.5954
▁जगहों	-10.5957
▁छाया	-10.5958
▁गिरजाघर	-10.5966
▁श्वसन	-10.5966
र्त	-10.5969
▁भीम	-10.5971
▁लिख	-10.5972
▁उतार	-10.5975
▁अनुच्छेद	-10.5978
ाँ	-10.5978
▁लेन	-10.5979
▁प्रसन्न	-10.5985
▁ऑल	-10.5986
▁संकल्प	-10.599
▁प्रभु	-10.5993
▁वास	-10.5995
70	-10.5996
िणी	-10.5998
ेंद्र	-10.5999
▁ग्वालियर	-10.6008
▁अतीत	-10.601
▁लड़की	-10.6021
▁निबंध	-10.6023
▁उठाया	-10.6024
पूर्वी	-10.6026
▁कारोबार	-10.6027
भेद	-10.6029
▁पृथक्	-10.6031
▁जावा	-10.6032
खंड	-10.6035
▁पड़ोसी	-10.6035
▁भंग	-10.6036
ra	-10.6038
राष्ट्रीय	-10.6039
▁मतभेद	-10.6044
▁सतत	-10.6049
▁फि	-10.6049
▁बर्मा	-10.6054
▁महाराणा	-10.6057
▁राजकीय	-10.6058
▁मेरा	-10.6059
▁कैलिफोर्निया	-10.6063
▁प्रोटोकॉल	-10.6063
33	-10.6064
छा	-10.6064
▁महमूद	-10.6069
56	-10.6069
▁विल्सन	-10.6069
▁1979	-10.607
इया	-10.6073
▁अक्ष	-10.6074
▁स्टॉक	-10.6097
▁प्रकरण	-10.6103
▁चोटी	-10.6104
98	-10.6104
▁भूमध्य	-10.6106
▁मद	-10.6106
▁ईस्वी	-10.6112
▁कार्ल	-10.6114
▁आधा	-10.6121
▁अवयव	-10.6122
ाम	-10.6124
il	-10.6129
▁इकाइयों	-10.613
▁तलाश	-10.613
▁सै	-10.6136
-20	-10.6137
▁जोड़े	-10.6141
ताल	-10.6147
la	-10.6152
▁उद्यम	-10.6152
▁परिस्थिति	-10.6153
ारा	-10.6153
▁सर्वर	-10.6154
▁चौथा	-10.6158
▁कुशीनगर	-10.6161
▁1982	-10.6162
वत	-10.6167
▁अभिक्रिया	-10.6168
टल	-10.6171
लाई	-10.6174
धार	-10.6176
▁पेशकश	-10.6179
▁विटामिन	-10.6179
▁खूब	-10.6179
▁हितों	-10.6182
▁भावनाओं	-10.6182
ol	-10.6183
मैं	-10.619
▁कॉल	-10.619
स्थल	-10.6192
▁तरफ़	-10.6194
▁स्तरों	-10.6196
▁मार्शल	-10.62
▁रायगढ़	-10.6201
▁खासकर	-10.6206
▁अदिलाबाद	-10.621
▁ऋग्वेद	-10.621
▁बनायी	-10.6212
▁बागेश्वर	-10.6212
रोग	-10.6212
▁पर्वतों	-10.6214
▁अवध	-10.6215
▁फार्म	-10.6215
काव्य	-10.6218
and	-10.6219
▁अमृत	-10.6222
▁स्क्रीन	-10.6222
▁वनों	-10.6224
▁सीज़न	-10.6225
▁विश्	-10.6227
ोर	-10.6228
▁लेखा	-10.6228
ैन	-10.6229
विद्या	-10.6232
मिया	-10.6235
▁अध्यक्षता	-10.624
▁समाजवादी	-10.6247
▁यूनियन	-10.6248
▁ऊतक	-10.6253
▁अनेकों	-10.6256
िग	-10.6256
▁लॉस	-10.6258
▁अल्पसंख्यक	-10.6259
▁हिमाचल	-10.626
▁सूचित	-10.6262
▁घोरी	-10.6264
सागर	-10.6265
▁सिक्किम	-10.6266
▁वाणिज्य	-10.6268
▁बाधा	-10.627
id	-10.627
65	-10.6273
▁ऊष्मा	-10.6274
▁पहुँचे	-10.6275
▁सृजन	-10.6277
▁विफल	-10.6279
▁रायपुर	-10.628
▁माया	-10.6287
सिन	-10.6289
▁गुवाहाटी	-10.6291
▁घोड़े	-10.6291
▁साधनों	-10.6294
▁डाइ	-10.6296
▁सौंप	-10.6297
▁तत्काल	-10.6302
▁एण्ड	-10.6308
▁समाजशास्त्र	-10.631
▁उल्लंघन	-10.631
96	-10.6316
▁प्रोत्साहन	-10.6316
▁निकटतम	-10.6319
▁आयी	-10.6319
▁पहाड़ों	-10.6324
▁आलोचकों	-10.6325
▁नाट्य	-10.633
▁राग	-10.6332
▁विहार	-10.6335
▁ग्रे	-10.6341
▁नाइट्रोजन	-10.6348
▁बनावट	-10.635
स्वामी	-10.6351
▁जीवाश्म	-10.6352
▁करनेवाले	-10.6353
▁बलिया	-10.6356
ंध	-10.6359
▁बैठा	-10.6365
▁ब्राजील	-10.6366
▁जू	-10.6367
▁पटकथा	-10.6368
▁ख़	-10.6368
टिन	-10.6373
▁मंगोल	-10.6374
▁विनाश	-10.6379
वेन	-10.6381
िओ	-10.6386
▁जैक	-10.6389
▁भेजे	-10.6391
▁प्रारम्भिक	-10.6394
▁नाभिकीय	-10.6397
▁गुरुत्वाकर्षण	-10.6398
32	-10.6404
▁महावीर	-10.6405
क्र	-10.6406
▁बैठे	-10.6407
▁श्रद्धा	-10.6407
58	-10.6408
▁तिब्बती	-10.6414
पश्चिमी	-10.6419
▁झांसी	-10.6423
▁लहर	-10.6425
un	-10.6427
▁1981	-10.643
▁चट्टानों	-10.6433
▁मालवा	-10.6435
▁खैर	-10.6436
▁1964	-10.6437
हू	-10.6438
▁पत्रों	-10.644
▁शिलालेख	-10.6442
▁पैदल	-10.6442
▁भाप	-10.6443
राज्य	-10.6445
47	-10.6448
▁प्रतिपादन	-10.6448
▁ब्रह्मांड	-10.6449
▁दायित्व	-10.6455
▁असली	-10.6458
▁संयोग	-10.6464
▁राणा	-10.6466
▁खोला	-10.6466
▁अमृतसर	-10.6469
▁फ्री	-10.647
सिया	-10.6479
▁तात्पर्य	-10.6486
▁राजनीतिज्ञ	-10.649
▁लक्ष्मण	-10.6491
न्यू	-10.6493
▁अपील	-10.6493
▁1945	-10.6495
▁लोकतंत्र	-10.6495
▁खेत	-10.65
▁व्यय	-10.6505
र्म	-10.6505
▁फैजाबाद	-10.6506
▁सिकन्दरपुर	-10.6507
भू	-10.6514
▁किरण	-10.6514
▁सदैव	-10.6519
▁ईरानी	-10.6519
▁वैध	-10.6523
▁सहारनपुर	-10.6525
▁ढाका	-10.6525
▁खेलते	-10.6526
ers	-10.6527
दूर	-10.6529
▁भरे	-10.6529
▁अब्दुल	-10.6531
▁1954	-10.6532
ियर	-10.6533
▁अक्षरों	-10.6534
87	-10.6535
▁मुग़ल	-10.6537
▁इंटरनेशनल	-10.6538
▁1961	-10.6538
ोव	-10.6543
▁48	-10.6543
▁अस्थि	-10.6544
▁1983	-10.6545
मिन	-10.6545
ानंद	-10.6548
▁मनु	-10.6551
▁1978	-10.6551
▁चू	-10.6556
▁अधिग्रहण	-10.6557
▁शिया	-10.6564
▁समझी	-10.6564
लाइन	-10.6564
िज	-10.657
▁ऑटो	-10.657
▁37	-10.6577
▁स्कोर	-10.6578
उस	-10.6579
िक्स	-10.6582
▁भ्रष्टाचार	-10.6582
▁एकता	-10.6585
▁बौद्धिक	-10.6589
▁सूडान	-10.6589
नू	-10.659
▁हट	-10.6592
रल	-10.6594
▁रणनीति	-10.66
पुराण	-10.6602
▁प्रभुत्व	-10.6603
तन	-10.6605
▁प्रभावों	-10.6605
▁वार्ता	-10.6608
▁स्वागत	-10.6608
डेन	-10.6613
रै	-10.6614
4%	-10.6616
▁रुद्र	-10.6617
▁सकल	-10.6621
▁बनकर	-10.6621
▁वृत्त	-10.6622
▁g	-10.6624
्ली	-10.6625
▁चित्रकूट	-10.6628
▁सूत्रों	-10.6629
▁जनक	-10.663
ठी	-10.6634
▁साक्ष्य	-10.6634
39	-10.6636
▁सोडियम	-10.6641
▁दृढ़	-10.6642
▁छाप	-10.6643
▁रहेगा	-10.6648
लम	-10.6649
▁खुदाई	-10.6652
▁सेल्सियस	-10.6653
▁जरिए	-10.6654
▁रेगिस्तान	-10.6654
▁उद्देश्यों	-10.6657
34	-10.6658
▁तपस्या	-10.666
▁उद्	-10.6666
▁बाबू	-10.6667
▁पात्रों	-10.6667
रान	-10.6673
▁पक्षों	-10.6673
▁इमारतों	-10.6678
02	-10.6687
▁छंद	-10.6687
गिर्द	-10.6689
80	-10.6689
थो	-10.6691
▁रिचर्ड	-10.6698
▁चौहान	-10.6699
▁उष्णकटिबंधीय	-10.6699
▁सिंहासन	-10.6701
तों	-10.6702
▁बचे	-10.6703
▁भेजने	-10.6703
▁संभवत	-10.6706
▁आज्ञा	-10.671
▁अतएव	-10.6712
▁अधिवेशन	-10.6718
▁गोपाल	-10.6718
▁पहुंचे	-10.6719
▁सदियों	-10.672
▁जै	-10.6722
▁1976	-10.6726
▁विलुप्त	-10.6728
▁सच	-10.6728
ानुसार	-10.673
•	-10.673
▁औरंगजेब	-10.6731
▁परिमाण	-10.6736
▁सैकड़ों	-10.6738
▁1974	-10.6739
▁क्रान्ति	-10.6744
▁साउथ	-10.6749
▁धरोहर	-10.6751
60	-10.6754
भी	-10.6759
}}	-10.6763
99	-10.6766
▁आपसी	-10.6767
▁जितनी	-10.677
▁तन्त्र	-10.6773
▁उदयपुर	-10.6779
रन	-10.678
▁आपकी	-10.6785
▁काट	-10.6787
▁यो	-10.6787
▁ट्रैक	-10.6796
▁अवैध	-10.6796
▁शान्ति	-10.6798
▁ब्लॉक	-10.6803
▁असाधारण	-10.6804
77	-10.6805
▁उतर	-10.6806
▁शब्दावली	-10.6809
67	-10.681
▁थॉमस	-10.6816
▁सम्पन्न	-10.6822
▁इटावा	-10.6823
कृष्ण	-10.6825
▁85.45	-10.6836
▁अभिलेख	-10.6838
▁भि	-10.6839
▁पार्वती	-10.6842
▁65	-10.6846
lo	-10.6849
▁अपितु	-10.6849
42	-10.6857
▁प्रसंग	-10.6859
▁टाइप	-10.6859
▁निकले	-10.686
▁गुट	-10.6864
दूसरे	-10.6864
▁मिर्जापुर	-10.687
▁देहरादून	-10.6876
पुरी	-10.6886
▁सेकंड	-10.6891
ेय	-10.6892
▁लै	-10.6892
▁बिग	-10.6892
▁उन्	-10.6894
▁ढाल	-10.6896
▁नदियाँ	-10.6902
▁शीत	-10.6906
▁चालक	-10.6912
▁कू	-10.6912
ंडी	-10.6918
गुण	-10.692
ce	-10.6928
▁करार	-10.6929
▁तैयारी	-10.6929
▁कथित	-10.6934
िए	-10.6935
▁1949	-10.6937
▁देहात	-10.6937
▁खबर	-10.6938
▁लें	-10.6938
प्रो	-10.6942
▁आमंत्रित	-10.6949
://	-10.6949
▁पीने	-10.6951
▁अवसरों	-10.6951
▁सोसाइटी	-10.6955
▁मैनपुरी	-10.6956
▁पर्वतमाला	-10.6957
ग्रह	-10.6957
▁तकनीकों	-10.6961
▁उम्मीदवार	-10.6962
▁भूत	-10.6962
▁चिन्ह	-10.6966
गामी	-10.6968
▁बुरी	-10.6969
▁कैन	-10.6971
प्पा	-10.6973
▁गै	-10.6977
00	-10.6977
ंगा	-10.6979
▁लवण	-10.6981
▁इतालवी	-10.6989
▁ड्राइव	-10.6995
▁रूपांतरण	-10.6995
क्त	-10.6997
वह	-10.7
63	-10.7001
▁इन्होने	-10.7002
▁डाक	-10.7002
्थ	-10.7006
▁ठ	-10.7007
▁सिरे	-10.7011
▁कार्यकर्ता	-10.7018
▁अवसाद	-10.7019
▁हज़ार	-10.7024
▁जाट	-10.7027
▁बॉण्ड	-10.7029
▁पावर	-10.7031
्यू	-10.7036
निर्माण	-10.7038
▁उपयोगकर्ताओं	-10.704
त्रा	-10.704
▁पूर्वज	-10.7043
ha	-10.7045
ांत	-10.7048
▁प्रदूषण	-10.7049
▁आतंकवाद	-10.7054
्ज	-10.7055
िटी	-10.7056
▁प्रबंधक	-10.7057
▁गोंडा	-10.7058
▁भीतरी	-10.7059
▁परिचित	-10.7063
▁मास्टर	-10.7064
▁...	-10.7068
▁टॉम	-10.7071
▁कठिनाई	-10.7072
वर्ष	-10.7074
▁छेद	-10.7076
▁अभयारण्य	-10.7076
वाह	-10.7077
▁सुदूर	-10.7078
▁अंतराल	-10.7079
▁डीएनए	-10.7082
कम	-10.7083
▁हेड	-10.7087
▁आयन	-10.7091
▁लगाकर	-10.7093
88	-10.7094
ाह	-10.7098
▁ख़ास	-10.7098
os	-10.7099
▁आराम	-10.71
▁एलिज़ाबेथ	-10.7103
ment	-10.7108
▁पर्वतीय	-10.7109
▁तू	-10.7113
▁एंटी	-10.7114
36	-10.7115
नियम	-10.7116
▁निर्दिष्ट	-10.7117
गाँव	-10.7118
93	-10.7118
मेट	-10.7118
▁भयंकर	-10.7124
▁रहकर	-10.7126
स्टा	-10.7126
▁डालने	-10.7132
चन्द्र	-10.7132
▁फै	-10.7135
▁सर्दियों	-10.7138
नारायण	-10.7138
▁चलचित्र	-10.714
ir	-10.7142
▁गाड़ी	-10.7143
▁बहुधा	-10.7144
▁इसपर	-10.7153
▁रहें	-10.7155
▁हटाने	-10.7155
▁कश्मीरी	-10.7156
▁स्नातकोत्तर	-10.7158
▁बढ़ाया	-10.7158
▁खाली	-10.7168
▁सिन्धु	-10.7169
▁देगा	-10.7171
▁लड़ने	-10.7172
▁गौ	-10.7175
समूह	-10.7175
▁परिवर्तनों	-10.7178
प्	-10.7178
▁कलात्मक	-10.7184
▁उर्जा	-10.7185
to	-10.7188
▁गौर	-10.7188
▁स्वीकृत	-10.7188
षा	-10.7189
जीवन	-10.719
▁पद्य	-10.7192
▁गोत्र	-10.7194
्न	-10.7194
चन	-10.7197
लन	-10.7202
▁शैक्षणिक	-10.7205
▁ब्रा	-10.7206
ल्ट	-10.7207
गार	-10.7208
na	-10.7208
▁विधेयक	-10.7212
▁अवलोकन	-10.7219
▁मासिक	-10.7222
िव	-10.7223
वर्ती	-10.7225
▁अस्वीकार	-10.7226
▁चतुर्थ	-10.7226
मुक्त	-10.7226
▁सीतापुर	-10.7226
▁v	-10.7238
▁ग्रीष्मकालीन	-10.7238
▁मामला	-10.7247
▁आनन्द	-10.7247
76	-10.725
ोरा	-10.725
▁एव	-10.7251
▁श्लोक	-10.7252
▁सुना	-10.7252
▁साइ	-10.7253
▁संलग्न	-10.7253
▁सैद्धांतिक	-10.7255
ब्र	-10.7255
▁नामांकन	-10.7259
li	-10.726
▁अफगानिस्तान	-10.7265
▁बन्द	-10.7267
▁आवासीय	-10.7268
फ्	-10.7268
▁सिंधु	-10.7268
▁मलेशिया	-10.7269
▁विदेशों	-10.7273
▁संदेह	-10.7275
71	-10.7276
▁साम	-10.7276
▁शरण	-10.7281
▁खाता	-10.7283
▁यांत्रिकी	-10.7283
▁64	-10.7284
▁ऑव	-10.7287
▁ऐंड	-10.7288
▁खुर्द	-10.7289
▁तूफान	-10.7295
▁सेंट्रल	-10.7295
▁संगणक	-10.7298
▁बिलकुल	-10.7302
▁वस्तुतः	-10.7305
भूत	-10.7308
▁बदलकर	-10.731
शाह	-10.7311
▁77	-10.7315
est	-10.7315
▁संक्रमित	-10.7319
▁मेन	-10.7327
दक्षिण	-10.7329
▁सरलता	-10.7329
▁शानदार	-10.733
ेरी	-10.7332
▁टु	-10.7336
▁जेन	-10.7338
78	-10.7341
ion	-10.7342
▁छिद्र	-10.7343
▁ब्रज	-10.7347
▁परिकल्पना	-10.735
यत	-10.7351
द्द	-10.7351
दू	-10.7352
▁भरत	-10.7354
▁ओम	-10.7361
▁पारम्परिक	-10.7364
▁रथ	-10.7364
▁सीखने	-10.7367
▁42	-10.7371
▁कृतियों	-10.7371
▁मानकों	-10.7375
▁भले	-10.7377
▁आंकड़ों	-10.7378
▁नाना	-10.7384
▁तमाम	-10.7385
▁राइस	-10.7388
▁72	-10.739
▁सुविधाएं	-10.7391
▁पढ़ा	-10.7391
▁हिन्दुओं	-10.7394
▁पहलू	-10.7401
▁देवनागरी	-10.7406
▁बिन	-10.7406
▁खून	-10.7407
▁1955	-10.7407
▁मैंने	-10.7411
▁झा	-10.7412
▁प्राधिकरण	-10.7413
▁आजमगढ़	-10.742
▁सांस	-10.7425
▁पंथ	-10.7426
▁1942	-10.7428
▁पहलुओं	-10.7434
▁1958	-10.7435
01	-10.7435
रहित	-10.7439
▁आइंस्टीन	-10.7441
किंग	-10.7445
कट	-10.7446
▁पोषक	-10.7448
मोर	-10.7449
53	-10.7454
▁सोलहवीं	-10.7456
’,	-10.7458
▁देशी	-10.7459
▁स्वायत्त	-10.7459
▁हज़रत	-10.7462
जवाहरलाल	-10.7467
▁गढ़	-10.7472
▁लू	-10.7473
खण्ड	-10.7473
▁युक्ति	-10.7474
▁पारिवारिक	-10.7476
▁समाधि	-10.7476
▁बढ़ी	-10.7479
▁फलों	-10.7484
ब्ब	-10.749
पथ	-10.7495
▁भागलपुर	-10.7497
्लो	-10.75
▁दादा	-10.7502
डल	-10.7502
▁कर्तव्य	-10.7503
मध्य	-10.7503
राजा	-10.7504
▁मार्टिन	-10.7505
▁श्रीमती	-10.7506
▁ईसापूर्व	-10.7508
▁भ्रम	-10.7509
▁स्त्रियों	-10.7511
▁ज्वर	-10.7519
▁अपवाद	-10.7523
▁आवरण	-10.7526
06	-10.7527
ोक	-10.753
बोध	-10.7531
▁माइक्रोसॉफ्ट	-10.7532
▁सिंध	-10.7533
ताओं	-10.7535
लों	-10.7535
▁बंगलौर	-10.7539
▁नित्य	-10.754
▁1966	-10.754
▁व्यतीत	-10.7546
▁बैंकों	-10.7548
▁औसतन	-10.7551
▁गाजियाबाद	-10.7553
▁अध्ययनों	-10.7558
▁पत्थरों	-10.7559
साहित्य	-10.756
▁निर्माताओं	-10.7561
▁शिवलिंग	-10.7564
▁निष्क्रिय	-10.7566
वीर	-10.7566
83	-10.7568
्ला	-10.7571
▁भेंट	-10.7576
▁श्याम	-10.7579
▁प्रभाग	-10.758
▁or	-10.7581
र्व	-10.7583
▁हस्त	-10.7585
▁बैक्टीरिया	-10.7589
▁एन्	-10.7591
▁लिंक	-10.7591
▁अहम	-10.7595
▁चूँकि	-10.7603
▁शव	-10.7606
▁ट्रस्ट	-10.7608
रम	-10.7612
▁वर्षीय	-10.7612
▁मधु	-10.7614
▁सकी	-10.7619
▁बयान	-10.7621
▁परिपथ	-10.7621
नुमा	-10.7623
▁संबोधित	-10.7624
▁आस्था	-10.7625
▁1968	-10.7625
▁मान्य	-10.7628
बाद	-10.7628
▁सर्विस	-10.7631
▁सापेक्ष	-10.7633
▁राजनेता	-10.7635
गति	-10.7636
ड़ों	-10.7642
▁चालू	-10.7642
▁मूलभूत	-10.7642
ुद्दीन	-10.7643
सेल	-10.7647
▁चोल	-10.7649
ट्रो	-10.7651
▁लौटने	-10.7654
▁सां	-10.7655
hi	-10.7656
▁निरीक्षण	-10.7659
▁तेलुगू	-10.7667
कर्ताओं	-10.7669
49	-10.7674
▁रायबरेली	-10.7674
▁79.50	-10.7674
▁27.22	-10.7674
▁भाजपा	-10.7675
हन	-10.7678
नपुर	-10.768
▁अंबेडकर	-10.7681
73	-10.7688
चल	-10.7688
▁स्थापत्य	-10.7688
▁भागवत	-10.7691
▁आकाशगंगा	-10.7703
▁सशस्त्र	-10.7704
▁देवरिया	-10.7705
युग	-10.7706
▁38	-10.7706
▁इर्द	-10.7711
्ले	-10.7713
▁ऑपरेशन	-10.7713
▁विषाणु	-10.7714
▁आउट	-10.7717
▁सूचीबद्ध	-10.772
▁तुलनात्मक	-10.772
▁संस्कृतियों	-10.7723
ाइट	-10.7728
64	-10.7731
छोटे	-10.7735
▁यौगिकों	-10.7735
▁शु	-10.7737
▁करवा	-10.7739
▁जम	-10.7741
▁मराठा	-10.7741
▁करियर	-10.7742
69	-10.7742
72	-10.7743
अल	-10.7743
▁श्रीनगर	-10.7746
▁it	-10.7751
▁जिम्मेदारी	-10.7753
उप	-10.7754
▁हिन्दुस्तान	-10.7756
▁नक्षत्र	-10.776
▁सीधी	-10.7763
▁पिथोरागढ	-10.7768
रंग	-10.7769
▁चंद	-10.777
09	-10.7771
बै	-10.778
▁झारखंड	-10.778
:09	-10.7783
▁बुक	-10.7784
▁जीवनी	-10.7784
▁गि	-10.7785
▁बिजनौर	-10.779
▁t	-10.7791
्का	-10.7791
▁नली	-10.7796
▁76	-10.7797
▁वितरित	-10.7797
▁ब्रेक	-10.7797
खी	-10.7797
:135	-10.7797
▁लाई	-10.7798
▁रूचि	-10.7798
ालय	-10.7802
्ग	-10.7807
डु	-10.7808
▁लखीमपुर	-10.7811
▁व्युत्पन्न	-10.7811
▁हरी	-10.7814
्रा	-10.7817
▁हॉकी	-10.7817
लीन	-10.7819
▁मीर	-10.782
▁ऊंचा	-10.7821
▁संकेतों	-10.7824
▁स्प	-10.7827
86	-10.7833
▁दर्शक	-10.7833
▁मत्स्य	-10.7833
▁संक्षेप	-10.7836
्ल	-10.7841
▁गार्डन	-10.7841
▁पिछल	-10.7843
अन	-10.7847
चक	-10.7847
▁अखबार	-10.7853
▁पाउंड	-10.7855
▁बायो	-10.7856
▁फुले	-10.7857
▁असमर्थ	-10.786
▁ओपन	-10.786
▁विधा	-10.7862
▁मॉ	-10.7865
▁बृहस्पति	-10.787
▁श्रावस्ती	-10.7877
▁सर्वोत्तम	-10.7877
▁1946	-10.7878
▁न्यायिक	-10.7879
▁k	-10.7881
▁तिलक	-10.7882
▁पूल	-10.7886
▁संचिका	-10.789
▁खीरी	-10.7891
▁कीट	-10.7892
झा	-10.7893
▁पाक	-10.7896
जब	-10.7897
▁उत्साह	-10.7903
▁कन्	-10.7904
▁कुश	-10.7906
▁स्वीडन	-10.7906
▁गले	-10.7907
▁लगाना	-10.7908
▁दंत	-10.7912
ण्	-10.7912
▁नमूने	-10.7914
ूल	-10.7918
▁भगत	-10.7918
▁लम्बा	-10.7925
▁समझते	-10.7925
▁घट	-10.7929
▁रेशम	-10.7931
▁ठंडा	-10.7933
▁:-	-10.7938
▁कैद	-10.7939
▁सें	-10.7939
▁6.	-10.7949
▁पीलीभीत	-10.795
▁एलबम	-10.795
▁चिंतन	-10.7951
▁डेली	-10.7952
बरी	-10.7955
▁उठाने	-10.7955
▁गज	-10.7958
▁प्रतिरक्षा	-10.796
▁इंडोनेशिया	-10.796
ab	-10.796
मूल	-10.7961
ांतर	-10.7961
▁बीकानेर	-10.7965
▁अफ़ग़ानिस्तान	-10.7965
▁प्रशिक्षित	-10.7965
▁बेगम	-10.7965
▁कब्र	-10.7969
न्ना	-10.797
▁चौड़ाई	-10.7976
▁तथ्यों	-10.7976
▁प्राचीनतम	-10.7978
▁योजनाओं	-10.7978
66	-10.7978
▁वस्तुत	-10.7978
▁1963	-10.7989
बाल	-10.799
▁डिवीजन	-10.7995
▁1921	-10.8004
▁हल्के	-10.8004
▁फर्रुखाबाद	-10.8009
प्प	-10.8011
▁पारिस्थितिकी	-10.8011
▁हमलों	-10.8012
▁आवाज़	-10.8014
▁घातक	-10.8019
धारा	-10.8022
▁रविदास	-10.8025
▁फसलों	-10.8026
▁वन्य	-10.8028
वेस्ट	-10.8029
▁दर्शनीय	-10.803
▁लड़ा	-10.803
▁दण्ड	-10.8035
▁भूभाग	-10.8041
▁मऊ	-10.8041
▁संग	-10.8044
ीस	-10.8044
▁पूर्णतया	-10.8049
▁आग्रह	-10.8052
▁कष्ट	-10.8057
▁बीसवीं	-10.8057
▁तत्त्व	-10.8059
गीत	-10.8062
▁रहित	-10.8065
▁उष्ण	-10.8069
▁इंजीनियर	-10.807
▁यम	-10.8071
▁जगत्	-10.8073
पूर	-10.8073
▁अनंत	-10.8077
▁नैदानिक	-10.8084
▁मणि	-10.8084
59	-10.8085
▁उपयोगिता	-10.8088
▁उपनिषदों	-10.8092
▁हानिकारक	-10.8092
▁घेरे	-10.8093
▁मनो	-10.8096
▁एक्सचेंज	-10.8099
▁चन्द्रमा	-10.8104
▁प्रचुर	-10.8105
▁हैरी	-10.8108
▁बिहारी	-10.811
▁लीला	-10.8113
▁आवेदन	-10.8114
▁आर्क	-10.8116
▁Al	-10.8117
▁रुपए	-10.8117
▁कोयला	-10.8119
▁उन्नाव	-10.8121
▁ताकत	-10.8127
▁रंगीन	-10.8128
▁गोल्ड	-10.8128
ांश	-10.8129
▁ललितपुर	-10.8132
▁नम	-10.8132
▁मूत्र	-10.8133
▁क्यू	-10.8134
▁सिफारिश	-10.8134
▁नीला	-10.8136
धी	-10.8138
▁ब्रह्माण्ड	-10.8138
▁1919	-10.8141
mo	-10.8141
▁वकील	-10.8142
▁महामाया	-10.8144
▁पूछा	-10.8145
▁फोटो	-10.8146
▁आचरण	-10.8147
▁रद्द	-10.815
▁पारस्परिक	-10.8151
▁मुलाकात	-10.8151
▁फिल्में	-10.8155
▁अवकाश	-10.8159
▁शताब्दियों	-10.8174
▁महोबा	-10.8181
▁कम्युनिस्ट	-10.8181
▁बांदा	-10.8183
▁दुसरे	-10.8184
▁स्वतन्त्र	-10.8185
▁चेहरे	-10.8189
नल	-10.8192
6′40′′	-10.8197
8′38′′	-10.8197
विन	-10.8197
ज्	-10.8201
▁सदर	-10.8206
▁25°3	-10.8211
▁खतरनाक	-10.8211
▁प्रतिद्वंद्वी	-10.8211
▁वसंत	-10.8215
▁पुरातत्व	-10.8217
▁एयरपोर्ट	-10.822
▁चम्पावत	-10.822
▁भ्रमण	-10.8222
▁फलन	-10.8222
▁कृपा	-10.8223
▁चक	-10.8225
▁e	-10.8226
पत	-10.8229
▁नगरी	-10.8234
▁इंग्लैण्ड	-10.8234
▁जंग	-10.8242
▁मं	-10.8242
ुन	-10.8243
शिया	-10.8244
▁सामान्यत	-10.8245
▁कविताओं	-10.8245
▁तेज़	-10.8245
▁क्यूबा	-10.8248
▁तारामंडल	-10.825
▁ताज	-10.8252
▁खुली	-10.8254
पै	-10.8258
िर	-10.8259
▁85°0	-10.826
ंब	-10.826
कन	-10.8265
▁पाठक	-10.8267
▁जग	-10.8273
▁वृक्षों	-10.8277
▁गान्धी	-10.828
-3	-10.8281
र्ब	-10.8283
स्तान	-10.8285
▁जिसको	-10.8287
विकास	-10.8293
▁कहकर	-10.8293
▁क्षय	-10.8296
▁प्रयाग	-10.8297
▁तलवार	-10.8299
▁पाश्चात्य	-10.8303
▁इण्डिया	-10.8306
प्रसाद	-10.8307
ter	-10.8307
▁सोनभद्र	-10.831
मिक	-10.8312
कारों	-10.8314
▁फ़ा	-10.8316
▁एकीकरण	-10.832
गंगा	-10.8321
▁सम्भव	-10.8322
▁युद्धों	-10.8323
▁लव	-10.8324
▁थोड़े	-10.8326
▁इनकार	-10.8327
▁अन्यथा	-10.8331
श्च	-10.8331
▁प्रयोगों	-10.8331
▁चेतावनी	-10.8333
▁प्रचालन	-10.8333
▁धाम	-10.8336
▁जोड़ता	-10.8337
▁तेलुगु	-10.8341
ानु	-10.8343
▁ध्रुवीय	-10.8344
Xi	-10.8349
▁बढ़कर	-10.8352
▁सीटों	-10.8352
क्क	-10.8355
▁फ्रैंक	-10.8356
▁मातृभाषा	-10.8356
79	-10.836
.8	-10.8364
वादियों	-10.8364
जय	-10.8367
▁कोलंबिया	-10.8372
थे	-10.8374
लेख	-10.838
▁प्रयोजन	-10.8387
▁देखना	-10.8388
क्यू	-10.8392
▁रंगमंच	-10.8395
▁विक्टोरिया	-10.8395
▁सारणी	-10.8395
इल	-10.8395
ीज	-10.8396
▁भाषाओँ	-10.8396
▁लाइव	-10.8403
▁बैक	-10.841
▁एज	-10.841
▁अंकों	-10.8411
चु	-10.8412
▁डबल्यू	-10.8417
कारक	-10.8418
जैसे	-10.8418
▁अवरोध	-10.8421
▁जहाजों	-10.8424
▁उपासना	-10.8425
▁कब	-10.8431
▁आन्ध्र	-10.8433
पात	-10.8436
धि	-10.8438
▁बैल	-10.844
▁वाहनों	-10.844
्द	-10.8442
▁बलरामपुर	-10.8442
▁सफ़ेद	-10.8446
▁रिंग	-10.8446
नेस	-10.8448
▁ढांचे	-10.8449
▁वकालत	-10.8456
▁अनुशासन	-10.8457
मह	-10.8466
ाइ	-10.8472
▁कितना	-10.8473
▁1951	-10.8473
▁दिखाने	-10.8473
▁बैंकिंग	-10.8474
▁अनुसूचित	-10.848
▁सकने	-10.8481
न्य	-10.8486
ोद	-10.8486
▁अदा	-10.8487
▁II	-10.8487
▁ख़त्म	-10.8495
▁पकड़ने	-10.8496
▁बर्	-10.8503
▁चढ़	-10.8503
▁पैरों	-10.8505
ज्ज	-10.8508
चित	-10.851
▁जालौन	-10.8511
▁पॉप	-10.8513
▁हमारा	-10.8514
▁उपलब्धि	-10.8514
▁प्राथमिकता	-10.8514
किसी	-10.8516
▁मुकदमा	-10.8519
▁जरिये	-10.8519
▁महाराजगंज	-10.852
▁नाक	-10.8525
▁मुफ्त	-10.8526
▁गाया	-10.8529
▁लाए	-10.8533
▁मुद्दे	-10.8534
▁शपथ	-10.8535
▁क्षत्रिय	-10.8536
▁भारतवर्ष	-10.8537
▁वाहक	-10.8541
▁टेलीफोन	-10.8542
▁तारीख	-10.8543
▁रोल	-10.8546
▁फिलिप	-10.8551
▁गोस्वामी	-10.8551
▁1936	-10.8551
रात	-10.8554
▁तेज़ी	-10.8556
▁250	-10.8558
▁बुलन्दशहर	-10.8558
▁सम्पर्क	-10.8558
▁बांटा	-10.8558
▁39	-10.8558
दम	-10.8561
▁गुल	-10.8562
▁जितने	-10.8566
▁शाब्दिक	-10.8568
प्रा	-10.8569
▁राहत	-10.8572
▁एपिसोड	-10.8573
▁त्यौहार	-10.8573
▁प्रखण्ड	-10.8583
▁नीले	-10.8588
▁लगाते	-10.8588
▁फिरोजाबाद	-10.8589
▁शोषण	-10.8598
ाइड	-10.8609
▁पुरी	-10.861
▁शिकायत	-10.8612
ीज़	-10.8613
▁कमान	-10.8614
▁51	-10.8614
▁बाण	-10.8616
▁परिवेश	-10.8621
▁मरने	-10.8622
▁प्रेमचंद	-10.8624
▁पेड़ों	-10.8625
▁पवन	-10.8626
▁आक्रामक	-10.8628
ोत्तर	-10.8634
क्षण	-10.8634
▁आंकड़े	-10.8636
▁उपजाऊ	-10.8637
61	-10.8639
▁विवादास्पद	-10.8644
▁पत्रकारिता	-10.8645
▁1939	-10.8646
▁not	-10.865
▁स्टे	-10.865
▁रेंज	-10.8652
54	-10.8653
▁स्वदेशी	-10.8654
▁दिखने	-10.8655
टू	-10.8656
लोन	-10.8661
▁गायन	-10.8661
▁चुम्बकीय	-10.8663
▁बाबर	-10.8663
▁विरूद्ध	-10.8668
▁करेगी	-10.8671
▁भेड़	-10.8673
▁सरोवर	-10.8679
▁हंस	-10.8679
▁बहुसंख्यक	-10.8684
▁कितनी	-10.8684
▁कांगो	-10.8687
41	-10.8687
▁बारिश	-10.8687
▁पोल	-10.8695
▁करो	-10.8697
म्बर	-10.8698
ac	-10.8701
मू	-10.8705
▁नर्मदा	-10.8708
▁ढ	-10.871
▁प्रांतीय	-10.8714
man	-10.8715
▁मेक्सिको	-10.8715
▁विघटन	-10.8715
▁विकासशील	-10.872
▁46	-10.8722
▁बैटरी	-10.8724
▁राहुल	-10.8726
▁माधव	-10.8728
▁शेख	-10.8729
▁नस्ल	-10.873
हल	-10.873
▁आजाद	-10.8733
▁झलक	-10.8741
ोल	-10.8745
▁धनुष	-10.8747
▁शाहजहांपुर	-10.8748
▁ओलम्पिक	-10.8756
▁लाइट	-10.8763
▁झिल्ली	-10.8763
▁पारी	-10.8763
▁चन्द्रगुप्त	-10.8764
▁पीछा	-10.8765
▁आपका	-10.8768
▁he	-10.8771
▁नेपोलियन	-10.8771
ंप	-10.8773
▁गोद	-10.8775
▁नाटकीय	-10.8776
▁नियत	-10.8777
▁प्रवास	-10.8779
▁थियेटर	-10.8779
▁रक्तचाप	-10.878
▁हें	-10.8792
▁कालीन	-10.8793
▁एचआईवी	-10.8795
▁देखता	-10.8796
▁दलित	-10.8796
रानी	-10.8799
▁फेर	-10.8804
शाला	-10.8808
ोली	-10.8809
▁रोशन	-10.881
▁लॉर्ड	-10.8814
▁लन्दन	-10.882
▁1953	-10.8821
▁1928	-10.8822
▁राजीव	-10.8823
ौं	-10.8824
पेट	-10.8825
▁धीमी	-10.8827
▁क्रेडिट	-10.8836
▁डाली	-10.8841
▁विनिमय	-10.8842
आधारित	-10.8844
▁प्रसिद्धि	-10.8845
व्	-10.8846
ड्स	-10.8846
शर	-10.885
▁बागपत	-10.8852
▁उपन्यासों	-10.8852
▁साइंस	-10.8861
▁नगरपालिका	-10.8861
▁बेटा	-10.8862
कोश	-10.8863
▁मन्त्र	-10.8863
सीन	-10.8865
▁सिपाहियों	-10.8868
▁प्रख्यात	-10.8868
▁शहीद	-10.887
▁गंध	-10.887
▁दत्त	-10.8871
▁रावण	-10.8871
46	-10.8872
▁पहचाना	-10.8873
▁रिकॉर्डिंग	-10.8874
▁आत्महत्या	-10.8876
▁पंजीकृत	-10.8876
घा	-10.8879
▁आदान	-10.8881
▁यथार्थ	-10.8881
▁गांवों	-10.8884
यम	-10.8886
▁थान	-10.889
▁India	-10.8893
▁शिकागो	-10.89
विशेष	-10.8901
ve	-10.8904
▁दृश्यों	-10.8905
▁हिंदुओं	-10.891
▁दीक्षा	-10.8912
▁धो	-10.8913
▁औपनिवेशिक	-10.8916
▁43	-10.8921
▁चाहती	-10.8922
▁ट्र	-10.8923
▁बेर	-10.8926
▁परे	-10.8927
▁बाई	-10.893
▁रिसर्च	-10.8933
▁मुंह	-10.8933
▁स्कॉटिश	-10.8933
▁जेट	-10.8934
▁बल्लेबाज	-10.8936
▁सेनापति	-10.8938
52	-10.8938
ut	-10.894
▁मार्गदर्शन	-10.8944
▁व्याप्त	-10.8944
पोर्ट	-10.8945
दत्त	-10.8946
दन	-10.8948
▁which	-10.8949
▁एक्शन	-10.8949
▁गायब	-10.8954
▁उष्मा	-10.8958
▁अश्व	-10.8959
▁चो	-10.8961
▁44	-10.8963
वाई	-10.8963
ry	-10.8964
▁इलेक्ट्रॉन	-10.8966
▁बंदी	-10.8968
लिस	-10.8969
▁आश्रय	-10.8969
▁जनन	-10.8971
▁ट्यूब	-10.8974
▁गद्दी	-10.8974
▁ब्राह्मणों	-10.8976
नुसार	-10.8977
▁चढ़ाई	-10.8978
▁युनाइटेड	-10.8981
▁पंख	-10.8981
▁फेंक	-10.8983
र्य	-10.899
प्ट	-10.899
▁ग्	-10.8991
▁पूर्णिमा	-10.8991
▁नाश	-10.8992
▁52	-10.8993
▁अन्न	-10.8995
गान	-10.8996
▁तह	-10.9
▁डाय	-10.9003
▁फी	-10.9006
▁शर्त	-10.9006
▁दीर्घ	-10.9006
▁ओजोन	-10.9006
▁खंडों	-10.9008
▁उत्पादक	-10.901
▁संख्याओं	-10.9014
||	-10.9014
▁मध्यकालीन	-10.9014
▁साथियों	-10.9017
ूँ	-10.9018
चन्दौली	-10.902
▁वस्तुएँ	-10.9025
▁पीले	-10.9027
अपने	-10.9027
लाइट	-10.903
▁विद्यार्थियों	-10.9031
▁बसने	-10.9032
62	-10.9034
▁यूनान	-10.9035
▁सवाई	-10.9035
▁पूर्णतः	-10.9037
ant	-10.9038
▁पेटेंट	-10.9042
▁भेदभाव	-10.9044
▁फौज	-10.9045
बेल	-10.9047
▁जौ	-10.9047
शैली	-10.9048
▁उत्तरार्ध	-10.9048
51	-10.9052
▁दाल	-10.9064
्सन	-10.9068
▁भावी	-10.907
ावस्था	-10.907
▁मैदानों	-10.9071
▁con	-10.9071
▁हाइ	-10.9072
▁उत्तरदायी	-10.9075
▁काटने	-10.9075
ल्यू	-10.9075
▁वर्णमाला	-10.9081
▁मू	-10.9081
ब्	-10.9081
▁उत्पादित	-10.9081
▁Re	-10.9084
▁धार	-10.9086
▁भूमिगत	-10.9086
घाट	-10.9089
▁बेचने	-10.909
▁27°53′	-10.9096
ैक	-10.9097
▁संस्करणों	-10.9097
▁7.	-10.9101
फिल	-10.9103
▁गे	-10.9105
▁अनुदान	-10.9107
▁रज	-10.9112
▁प्लास्टिक	-10.9113
▁कारखाने	-10.9113
बड़े	-10.9117
पुत्र	-10.9118
▁हथियारों	-10.9119
▁घेर	-10.912
▁सिद्धार्थनगर	-10.9122
▁अत्याचार	-10.9122
▁आल	-10.9127
▁चार्ट	-10.9131
▁1937	-10.9131
▁औरैया	-10.9135
▁आयरिश	-10.9138
▁120	-10.9138
ुक	-10.9142
मुखी	-10.9144
ड्र	-10.9145
▁मधुर	-10.9146
▁राजकुमारी	-10.915
स्वरूप	-10.915
▁दोषी	-10.9151
▁78°04′	-10.9154
वेयर	-10.9155
▁बैठ	-10.9155
अनु	-10.9158
▁जीवविज्ञान	-10.9163
रेट	-10.9163
▁दम	-10.9167
जीव	-10.9168
▁हार्मोन	-10.9171
57	-10.9176
▁थिएटर	-10.9179
▁केशव	-10.918
▁सम्बद्ध	-10.918
▁मध्यप्रदेश	-10.9182
▁74	-10.9183
▁पीड़ा	-10.9184
▁शिक्षित	-10.9186
▁असमिया	-10.9186
▁टुकड़े	-10.9188
▁क्लोराइड	-10.9188
▁बता	-10.9189
ity	-10.9192
91	-10.9195
ियत	-10.9196
▁निकोबार	-10.9196
▁बेहतरीन	-10.9198
ायन	-10.9198
▁उत्तराधिकार	-10.9203
्से	-10.9204
ारी	-10.9204
▁मालूम	-10.9205
▁प्रमेय	-10.9205
बिन	-10.9208
J	-10.9211
▁अहिंसा	-10.9212
▁स्तूप	-10.9213
▁मुँह	-10.9213
▁शंकराचार्य	-10.9213
▁रॉकेट	-10.9215
िला	-10.922
▁उद्गम	-10.9222
गृह	-10.9222
ुम	-10.9225
▁ज्योतिब	-10.9226
▁गरीबी	-10.9226
शाली	-10.9233
ud	-10.9236
सीसी	-10.9236
▁आँख	-10.9238
▁एकदम	-10.9239
▁स्वप्न	-10.9242
▁रचनात्मक	-10.9244
▁वास्तु	-10.9247
▁सेमी	-10.9249
▁ग्यारह	-10.9252
▁किशोर	-10.9253
▁अनुप्रयोगों	-10.9254
▁स्तन	-10.9255
▁चक्कर	-10.9259
▁स्मरण	-10.926
▁वाणी	-10.926
शो	-10.9262
▁पाती	-10.9263
-4	-10.9263
▁बास	-10.9264
▁भांति	-10.9269
ti	-10.9271
▁द्र	-10.9272
▁स्पेनिश	-10.9273
▁1935	-10.9274
▁राष्ट्रमंडल	-10.9274
▁गिल	-10.9274
ak	-10.9275
▁बहने	-10.928
▁लोकतांत्रिक	-10.928
▁पर्यावरणीय	-10.9282
▁आवेश	-10.9284
▁कहानियाँ	-10.9288
▁घूमने	-10.929
▁हिंद	-10.9292
▁वान	-10.9293
▁परिचालन	-10.9297
▁खपत	-10.9297
▁स्टील	-10.9299
▁गतिशील	-10.9299
▁स्तम्भ	-10.93
▁पोत	-10.9302
▁एल्	-10.9303
सिंगपुर	-10.9305
मास	-10.9306
▁विद्वान्	-10.9306
▁सूखे	-10.9309
ian	-10.9309
▁84	-10.9314
▁1959	-10.9315
▁पत्रिकाओं	-10.9318
▁दायर	-10.9318
▁बदौ	-10.9319
▁जगन्नाथ	-10.9322
▁कपास	-10.9325
कण	-10.9329
▁गुलाब	-10.9329
शायर	-10.9336
र्द	-10.9337
▁मंगोलिया	-10.9338
▁लड़कियों	-10.9339
▁गिरने	-10.9345
चंद	-10.9346
द्ध	-10.9347
▁शैव	-10.9349
ect	-10.9353
▁दुःख	-10.9354
▁यहूदियों	-10.9356
▁नींद	-10.9358
ॉस	-10.9359
ाली	-10.936
म्बा	-10.9364
▁तिहाई	-10.9367
पक्ष	-10.9371
▁प्रगतिशील	-10.9373
▁स्पेक्ट्रम	-10.9373
ियस	-10.9382
▁वर्	-10.9383
द्वार	-10.9387
▁धूल	-10.9387
▁प्रतिबंधित	-10.9389
▁जन्मे	-10.9394
चौ	-10.9396
▁व्यापारियों	-10.9396
▁अणुओं	-10.9397
▁पैटर्न	-10.9399
▁कलाम	-10.9399
▁महिलाएं	-10.94
स्की	-10.94
ल्फ	-10.9401
▁मार्	-10.9402
ेंस	-10.9402
▁मकान	-10.9404
▁लंका	-10.9405
▁तैनात	-10.9405
▁हेल	-10.9409
▁पुरा	-10.9411
ब्रा	-10.9413
▁पौधा	-10.9415
▁भोग	-10.9415
▁बहरै	-10.9416
मेर	-10.942
▁सीरिया	-10.9422
▁ऊंचे	-10.9424
▁निधि	-10.9427
व्यवस्था	-10.9427
क्का	-10.9428
▁घटित	-10.943
▁वाद	-10.943
▁जाएँ	-10.9432
▁मुकाबला	-10.9432
▁कितने	-10.9433
▁क्रोध	-10.9436
▁हरदोइ	-10.9441
▁टेनिस	-10.9442
गुरु	-10.9447
▁क्रो	-10.9448
▁कौशम्	-10.945
▁ग्रस्त	-10.945
▁मुझफ्फर	-10.9458
▁रोकथाम	-10.9458
▁आरक्षित	-10.9462
▁सोसायटी	-10.9467
▁उन्होनें	-10.9467
परिवार	-10.9467
▁संश्लेषण	-10.9468
खान	-10.9469
▁1932	-10.9477
▁दुश्मन	-10.9477
▁साधारणतया	-10.9477
▁बाराबा	-10.9478
▁रोशनी	-10.9479
▁रवि	-10.948
▁उतनी	-10.9484
▁जर्नल	-10.9484
▁आँखों	-10.9491
▁लूट	-10.9491
ट्	-10.9495
va	-10.9497
▁मेजर	-10.9498
▁600	-10.9498
▁अना	-10.9501
▁चेक	-10.9503
68	-10.9509
▁रेत	-10.951
▁प्राकृत	-10.9511
▁1931	-10.9511
▁हान	-10.9512
▁महासभा	-10.9528
▁टैंक	-10.9528
▁स्वरुप	-10.9531
शिप	-10.9535
िमा	-10.9537
▁बढ	-10.9539
ियल	-10.9539
▁टावर	-10.9539
▁मुड़	-10.9542
ive	-10.9544
▁खुश	-10.9545
▁ऊतकों	-10.9546
म्भ	-10.955
▁भाषाई	-10.9552
▁प्रजातियां	-10.9554
▁दक्षता	-10.9557
▁पौ	-10.9559
▁1900	-10.956
▁पाद	-10.9565
▁सिर्फ़	-10.9571
्टो	-10.9572
_{	-10.9578
▁सुप्रसिद्ध	-10.958
▁आतंकवादी	-10.9581
▁व्याख्यान	-10.9582
▁मिस	-10.9584
▁हार्ट	-10.9584
▁गुर	-10.9587
▁विन्यास	-10.9591
▁अं	-10.9595
िना	-10.9596
▁तने	-10.9597
स्ति	-10.9597
गुप्त	-10.9598
च्	-10.96
क्षा	-10.9602
▁चै	-10.9602
▁ऑपरेटिंग	-10.9605
प्त	-10.9605
▁सिक्के	-10.9606
विद	-10.9613
▁दस्तावेज	-10.9613
▁शाकाहारी	-10.9615
▁बाय	-10.9622
▁अद	-10.9623
▁इकट्ठा	-10.9624
74	-10.9626
▁नरेन्द्र	-10.9629
▁दया	-10.963
▁सती	-10.9633
फे	-10.9634
▁प्रांतों	-10.9637
▁सल्तनत	-10.964
▁गिरा	-10.964
▁यकृत	-10.9642
ोड	-10.9643
▁फर	-10.9644
रेखा	-10.9645
जनरल	-10.9645
▁दिखा	-10.9645
कोर	-10.9647
सान	-10.9656
84	-10.9658
▁क़ानून	-10.9665
▁यूएस	-10.9665
ंडल	-10.9666
▁धनी	-10.9667
92	-10.9676
▁संवेदनशील	-10.9681
▁अपराधी	-10.9682
81	-10.9683
▁सुरंग	-10.9683
▁जला	-10.9687
▁हरिद्वार	-10.9693
▁मानसून	-10.9694
▁शै	-10.9694
ंश	-10.9695
▁ज्योति	-10.9696
▁56	-10.9696
44	-10.9699
▁उपभोग	-10.9701
▁जिम	-10.9703
▁गोविंद	-10.9705
ज़न	-10.9706
▁क्रॉस	-10.9708
▁सर्प	-10.971
▁आकलन	-10.971
▁उपहार	-10.9715
ोट	-10.9717
▁विषम	-10.9724
▁47	-10.9724
उल	-10.9725
▁सत्याग्रह	-10.9727
▁बेल्जियम	-10.9727
94	-10.9731
▁आर्	-10.9733
▁अटलांटिक	-10.9737
▁मीनार	-10.9738
जीत	-10.974
जेन	-10.974
▁होम	-10.9741
▁‘‘	-10.9741
▁सीख	-10.9743
▁ग्रैंड	-10.9746
▁दू	-10.9748
ज़ो	-10.9748
▁प्रवेशद्वार	-10.9749
▁नारी	-10.9749
युद्ध	-10.9752
▁व्यस्त	-10.9753
▁भरपूर	-10.9756
▁बनारस	-10.9757
▁अयोध्या	-10.976
▁हॉ	-10.976
▁खाद	-10.9761
▁रचयिता	-10.9762
ne	-10.9763
▁लुप्त	-10.9763
▁चोरी	-10.9765
▁विवेक	-10.9769
▁आयाम	-10.977
ऑ	-10.9771
▁भूमिकाओं	-10.9771
टेक	-10.9777
▁घने	-10.9781
▁उन्नीसवीं	-10.9782
▁पूरक	-10.9782
▁भरने	-10.9784
▁ग्लोब	-10.9785
▁मंजूरी	-10.9788
▁कालांतर	-10.9788
▁समुचित	-10.9789
कोड	-10.979
स्टी	-10.9797
▁ग्लोबल	-10.9798
▁व्यायाम	-10.9798
▁प्रतिकूल	-10.9798
▁चौड़ी	-10.9799
Xw	-10.9799
▁चित्रकला	-10.9801
▁नजदीक	-10.9806
ृत	-10.9807
▁अनुकरण	-10.9809
▁माला	-10.9811
▁पुण्य	-10.9813
▁अबू	-10.9816
▁अपनाने	-10.9817
▁बलि	-10.9817
▁परेशान	-10.982
िज़	-10.982
मती	-10.9822
वासियों	-10.9823
▁कथानक	-10.9825
▁चट्टान	-10.9828
मित	-10.9829
▁कार्यवाही	-10.9836
▁मशीनों	-10.9837
मस	-10.9838
्मा	-10.984
▁दीप	-10.984
▁फ़िर	-10.984
▁छठी	-10.9842
▁मछलियों	-10.9842
▁बाइबिल	-10.9842
▁बॉन्ड	-10.9843
लंब	-10.9844
▁फंड	-10.9844
▁रूपरेखा	-10.9845
▁नाइट	-10.9846
▁सोनी	-10.9848
▁बंगलुरु	-10.9852
फ़ी	-10.9855
्मी	-10.9858
▁मरम्मत	-10.986
हिर	-10.9861
ेक	-10.9861
▁हुयी	-10.9861
▁निर्णायक	-10.9862
▁आघात	-10.9864
▁सोम	-10.9871
स्ट्र	-10.9872
▁बजाए	-10.9872
▁पारसी	-10.9877
▁भविष्यवाणी	-10.9878
▁खलीफा	-10.9884
▁पतली	-10.9888
▁कराता	-10.9888
▁बू	-10.989
लक	-10.989
हरी	-10.9891
न्द्र	-10.9891
co	-10.9895
▁इंगित	-10.9896
▁जबलपुर	-10.9896
वर्धन	-10.9897
ate	-10.9898
नाल	-10.9901
▁जज	-10.9904
▁बर्लिन	-10.9905
▁चित्त	-10.9907
▁गाना	-10.9907
▁विद्यालयों	-10.9908
▁आदर	-10.991
▁सौंपा	-10.9912
▁बोले	-10.9912
▁स्तरीय	-10.9913
▁प्रतिपादित	-10.9923
▁बुखार	-10.9923
ौली	-10.9926
▁आज़ाद	-10.9927
डू	-10.9929
▁स्पेस	-10.9929
▁मंद	-10.9932
▁खारिज	-10.9936
▁विशेषज्ञों	-10.9936
▁जंतु	-10.9938
▁होली	-10.9939
▁निर	-10.994
▁इर	-10.9942
ग्रंथ	-10.9944
82	-10.9948
▁निकलकर	-10.9949
▁समर्थ	-10.9951
▁राजस्थानी	-10.9953
िनो	-10.9953
▁पत्ते	-10.9953
▁धूप	-10.9959
▁गेहूँ	-10.9959
▁विमानों	-10.9959
इयों	-10.9959
विधि	-10.9959
गढ	-10.9964
▁उदार	-10.9966
▁घुल	-10.9967
्वे	-10.9967
▁फाउंडेशन	-10.9968
▁रॉ	-10.9969
▁जयंती	-10.997
▁1927	-10.997
▁मलय	-10.9974
लैण्ड	-10.9976
▁ट्रांस	-10.9976
▁आक्सीजन	-10.9977
▁मौ	-10.9977
▁गुड	-10.9981
▁दुकान	-10.9984
▁सुनाई	-10.9985
▁कच्चे	-10.9986
▁एजेंट	-10.9986
▁आक्साइड	-10.9992
ंगल	-10.9994
▁उज्जैन	-10.9995
▁मंत्रियों	-10.9995
ाक्षर	-10.9996
▁धान	-10.9998
डिंग	-10.9999
ंडर	-11.0002
डेल	-11.0004
मार्क	-11.0005
▁दाखिल	-11.0013
▁बीमार	-11.0017
▁मेजबानी	-11.0017
▁खरीदने	-11.0019
फोर्ड	-11.0019
रिन	-11.0022
त्रि	-11.0024
▁नाल	-11.0027
▁राष्	-11.003
▁फर्म	-11.0038
▁आत्मकथा	-11.0039
▁एनबीसी	-11.004
मीटर	-11.0041
▁जिनको	-11.0047
▁राजदूत	-11.005
▁w	-11.0056
▁सूरत	-11.0062
▁विश्वनाथ	-11.0063
ट्टी	-11.0065
di	-11.0066
1°51′	-11.0067
▁समापन	-11.007
▁अजमेर	-11.007
▁घटकों	-11.0071
▁प्रोग्रामिंग	-11.0073
our	-11.0076
▁इधर	-11.0079
▁बंधन	-11.008
▁स्वच्छ	-11.0081
खु	-11.0085
▁द्विवेदी	-11.0085
▁बुजुर्ग	-11.0085
▁संकलित	-11.0085
▁25°09′	-11.0086
▁अन्वेषण	-11.0086
▁संकाय	-11.0087
▁निर्वाह	-11.0091
▁पब्लिक	-11.0095
▁नंद	-11.0099
▁उद्धृत	-11.0104
▁पादप	-11.0104
▁हराकर	-11.0107
जित	-11.0109
▁उभर	-11.0111
▁खुल	-11.0111
▁परीक्षणों	-11.0111
▁नजदीकी	-11.0114
▁मार्गों	-11.0117
फ़े	-11.0119
ौल	-11.0119
▁मूर्तियों	-11.012
▁श्रंखला	-11.0122
▁भाष्य	-11.0123
प्रकाश	-11.0124
▁संरचनाओं	-11.0124
▁बाध्य	-11.0127
▁संकर	-11.0127
▁डु	-11.0127
ल्ठम	-11.0131
▁रोज	-11.0136
▁स्टीव	-11.0137
▁ट्रे	-11.0138
्टी	-11.0143
▁1924	-11.0143
जनक	-11.0145
▁परंपराओं	-11.0147
▁ऑक्साइड	-11.0147
▁बचत	-11.0162
▁सजीव	-11.0165
▁पेन	-11.0167
▁अनुभूति	-11.0167
▁दुबारा	-11.0168
▁गुलाम	-11.0169
▁कुंड	-11.0173
▁सवार	-11.0173
▁इंजीनियरी	-11.0174
▁वियतनाम	-11.0176
▁पाना	-11.0177
परास्त	-11.0178
‘	-11.0179
▁उपायों	-11.0186
▁चीज़	-11.0186
▁99	-11.0187
इक	-11.0191
▁चिर	-11.0191
▁सोचा	-11.0192
कता	-11.0192
▁नीदरलैंड	-11.0198
▁उग्र	-11.0198
▁सुधारों	-11.0199
▁अभिन्न	-11.0199
ड्	-11.02
04	-11.0201
▁शर	-11.0202
ot	-11.0202
▁बिलासपुर	-11.0205
▁हिन्दु	-11.0207
0%	-11.0215
▁पॉ	-11.0215
▁गिनती	-11.0215
▁1922	-11.0216
▁कुंभ	-11.0223
▁अनुयायियों	-11.0223
्प	-11.0223
▁सम्भावना	-11.0223
िद	-11.0224
▁व्यंग्य	-11.0225
्श	-11.0229
▁योद्धा	-11.023
सिक	-11.0231
सह	-11.0232
▁दक्ष	-11.0235
परक	-11.0235
▁मैदानी	-11.0236
▁हालत	-11.0236
▁फ्लोरिडा	-11.0242
▁बियर	-11.0242
▁निंदा	-11.0243
▁परम्परागत	-11.0244
▁टीबी	-11.025
▁पचास	-11.0252
▁श्रीराम	-11.0252
▁लायक	-11.0253
क्रो	-11.0254
▁बुरा	-11.0259
▁शाखाएँ	-11.0261
▁नाते	-11.0261
▁महाद्वीपीय	-11.0262
▁साप्ताहिक	-11.0264
▁रुप	-11.0264
लेन	-11.0266
▁पट	-11.0271
डॉ	-11.0273
5°27′	-11.0278
▁वाद्य	-11.028
िआ	-11.0281
▁अरबों	-11.0281
नेवाली	-11.0282
▁नाभिक	-11.0284
▁दिखता	-11.0285
▁बंबई	-11.0288
▁घोल	-11.0291
▁शतक	-11.0293
▁बीबीसी	-11.0299
फ़्	-11.0299
▁शीतल	-11.0302
▁होम्स	-11.0305
▁कार्यान्वयन	-11.0307
▁शिमला	-11.0307
▁कन	-11.0309
▁स्टोर	-11.0311
वॉ	-11.0314
▁सशक्त	-11.0314
▁कूट	-11.0315
टोन	-11.0318
▁मूवी	-11.0318
▁अवशोषण	-11.0321
ाओं	-11.0324
▁डेटाबेस	-11.0326
▁उनपर	-11.0328
▁क्वा	-11.0336
▁प्रि	-11.0336
▁निभाया	-11.0337
▁वात	-11.0346
▁1917	-11.0347
▁ज़ोर	-11.0351
वाड़ा	-11.0353
▁सर्किट	-11.0354
▁कोमल	-11.0354
▁क्र	-11.0357
▁समानांतर	-11.0357
किन	-11.0367
▁वरन्	-11.0372
ेन्ट	-11.0372
▁समकक्ष	-11.0373
▁शिला	-11.0379
▁वर्षो	-11.038
▁बोला	-11.0381
▁शूटिंग	-11.0383
▁लुई	-11.0384
कॉम	-11.0389
▁पैरा	-11.039
▁अधिकृत	-11.039
▁सावरकर	-11.0391
▁पूर्ववर्ती	-11.0394
▁तरंगों	-11.0395
वृत्त	-11.0396
▁डब्ल्यू	-11.0398
▁साम्यवादी	-11.0399
▁एडिनबर्ग	-11.04
▁फ्लैश	-11.04
▁राजभाषा	-11.0405
▁इराक	-11.0405
▁मानस	-11.0407
▁कुश्ती	-11.041
▁पालतू	-11.041
ांकित	-11.0415
▁तीस	-11.0417
▁अध	-11.0421
▁वरुण	-11.0424
प्ला	-11.0426
▁खुदरा	-11.0429
▁बुश	-11.0432
▁दीक्षित	-11.0432
▁भूख	-11.0432
▁दर्पण	-11.0433
लेस	-11.0434
▁बादल	-11.0435
▁http	-11.0439
▁गैसों	-11.044
▁1929	-11.0441
्को	-11.0441
तिया	-11.0446
▁ज्यामिति	-11.0448
▁ज्वार	-11.0449
▁प्रस्तुति	-11.0451
▁चीजों	-11.0451
▁रण	-11.0457
▁पुरातन	-11.0457
▁उसपर	-11.0457
ोला	-11.0458
मिट	-11.0459
▁पोलैंड	-11.0459
▁दूत	-11.0463
▁पंचम	-11.0465
्ब	-11.0465
्टे	-11.0465
▁लेंस	-11.0466
▁उड़	-11.047
▁इमाम	-11.0471
▁दाँत	-11.0473
कुछ	-11.0479
▁एयरलाइंस	-11.0486
रेन	-11.0486
▁अनुयाई	-11.0486
ism	-11.0493
प्रिय	-11.0495
▁भली	-11.0499
▁इनमे	-11.0499
पक	-11.0499
▁सोन	-11.0501
▁साफ़	-11.0502
▁ब्रजभाषा	-11.0505
▁जोड़कर	-11.0506
▁जंतुओं	-11.0507
▁कौटिल्य	-11.0508
▁निकटता	-11.0508
थु	-11.0509
लिका	-11.0514
फील्ड	-11.0514
▁पुनर्निर्माण	-11.0515
▁प्रवर्तन	-11.0515
▁प्रिंस	-11.0516
▁1918	-11.0517
नौ	-11.052
▁त्योहार	-11.052
▁भु	-11.0525
त्री	-11.0526
▁संजय	-11.0526
▁प्री	-11.0528
de	-11.053
कस	-11.0532
▁भाइयों	-11.0534
▁देखरेख	-11.0534
▁दीवान	-11.0535
▁आशय	-11.0535
▁एट	-11.0536
▁कानूनों	-11.0536
▁आलोचक	-11.0539
▁नानक	-11.0539
▁सदृश	-11.054
▁भवनों	-11.0541
ज़ि	-11.0542
नार	-11.0543
▁रविवार	-11.0544
▁रोका	-11.0544
▁प्रवासी	-11.0544
om	-11.0546
दर्श	-11.0549
ai	-11.0549
▁शैलियों	-11.055
▁st	-11.0555
च्च	-11.0556
▁माउंट	-11.0556
▁सूचक	-11.056
हान	-11.0561
▁विंडोज	-11.0561
▁बर्फ़	-11.0562
▁image	-11.0562
▁काउंसिल	-11.0562
▁विफलता	-11.0565
▁हार्ड	-11.0566
टेन	-11.0566
▁बहुतायत	-11.057
www	-11.0571
▁भक्तों	-11.0572
▁प्ले	-11.0576
उत्तर	-11.0577
जात	-11.058
all	-11.0581
पाकिस्तान	-11.0583
▁समृद्धि	-11.0584
▁ची	-11.0584
▁आयतन	-11.0587
▁अह	-11.0588
▁73	-11.059
अस	-11.059
▁बनना	-11.0595
▁उठ	-11.0596
▁सुन्नी	-11.0598
▁नल	-11.06
▁यूनिट	-11.06
फोन	-11.0602
▁टेलर	-11.0602
▁सेतु	-11.0603
▁भोजपुरी	-11.0607
▁रोज़	-11.061
▁उद्भव	-11.0612
▁नामांकित	-11.0613
▁पाली	-11.0615
▁पीला	-11.0617
▁चुन	-11.0617
▁डाई	-11.0617
▁मजदूर	-11.0618
▁सिद्धान्तों	-11.0624
भाष	-11.0628
▁आश्चर्य	-11.0629
▁रेजीमेंट	-11.0629
▁असंभव	-11.063
▁चिन	-11.063
ाद	-11.063
▁तिल	-11.0635
▁कमीशन	-11.0635
▁दांत	-11.0635
▁दानव	-11.0635
▁श्रमिक	-11.0637
ind	-11.0643
मई	-11.0644
▁उत्तीर्ण	-11.0648
▁कहाँ	-11.0649
बंध	-11.0649
▁गोविन्द	-11.065
कुमार	-11.0657
▁पुत्रों	-11.0657
▁सिपाही	-11.0658
▁मिलान	-11.0661
▁सुलभ	-11.0664
▁मेवाड़	-11.0665
▁उजागर	-11.0668
▁सुनने	-11.0668
▁बुल	-11.0671
ka	-11.0672
जान	-11.0675
प्ले	-11.0675
तार	-11.0676
▁अक्षय	-11.0677
▁ज्येष्ठ	-11.0677
▁बच्चन	-11.0677
▁उपरान्त	-11.0677
पान	-11.0678
▁दिशाओं	-11.0679
▁जूनियर	-11.0679
दिन	-11.068
शंकर	-11.0681
age	-11.0681
▁हिमनद	-11.0685
भार	-11.069
▁अलंकार	-11.0693
▁निभा	-11.0705
जाल	-11.0707
▁बताने	-11.0707
▁1944	-11.0709
▁झंडा	-11.071
▁नासा	-11.0711
हट	-11.0712
▁सीटें	-11.0713
▁देह	-11.0714
▁गानों	-11.0714
▁गैलेक्सी	-11.0716
▁गुर्जर	-11.0716
विरोधी	-11.0721
▁सेनानी	-11.0723
▁सुनकर	-11.0724
▁फ़ोन	-11.0725
▁आलू	-11.0725
मानव	-11.0726
▁घूर्णन	-11.0726
▁भाषी	-11.0727
▁अतिथि	-11.0728
▁तालिका	-11.0728
▁तत्पश्चात्	-11.0729
▁मंजिल	-11.073
▁लेबल	-11.0743
▁81	-11.0744
▁अपेक्षित	-11.0745
▁प्रतिनिधियों	-11.0749
▁भो	-11.0751
▁दरवाजे	-11.0755
स्को	-11.0755
▁सन्धि	-11.0757
▁बुला	-11.0759
▁मान्यताओं	-11.076
▁फिल	-11.0761
▁भूटान	-11.0765
ानन्द	-11.0766
▁ठहराया	-11.0766
▁वर्णक्रम	-11.0766
▁अफ़्रीकी	-11.0766
▁अर्द्ध	-11.0766
▁क्रे	-11.0769
▁सिखों	-11.077
▁चीज	-11.0771
▁कीटों	-11.0772
ेंगे	-11.0772
▁ढूंढ	-11.0776
▁1925	-11.0778
▁उमर	-11.0778
▁धरातल	-11.078
▁मलिक	-11.0781
▁संरक्षक	-11.0782
▁मरुस्थल	-11.0784
▁मुखर्जी	-11.0785
▁प्रतिस्थापित	-11.0786
▁सनातन	-11.0787
▁वनडे	-11.0789
ary	-11.0792
ाते	-11.0792
▁क़ब्ज़	-11.0794
▁प्रामाणिक	-11.0794
▁सोलह	-11.0794
▁सर्वथा	-11.0796
ल्ली	-11.0798
वृत	-11.0801
▁खु	-11.0804
▁प्रत्यय	-11.0807
▁इस्तीफा	-11.0808
▁नैतिकता	-11.0808
सै	-11.0808
▁क्षण	-11.0808
▁वक्र	-11.0809
▁समर्थकों	-11.081
नीति	-11.0815
▁इज	-11.0816
▁अवयवों	-11.0816
ेव	-11.0818
▁गौरी	-11.0819
▁कॉन्	-11.0819
बान	-11.0821
▁लेजर	-11.0822
▁can	-11.0823
सेट	-11.0824
भंग	-11.0828
▁माय	-11.083
▁फु	-11.0833
▁वायुसेना	-11.0834
ट्रा	-11.0836
▁असल	-11.0836
ाचार	-11.0836
▁अध्यापक	-11.084
▁ब्याज	-11.0845
▁दावे	-11.0847
▁पेज	-11.0848
iv	-11.0848
▁तुलसी	-11.0852
▁आशंका	-11.0853
▁बच्चा	-11.0854
▁स्पा	-11.0854
▁एड्स	-11.0855
▁सहयोगियों	-11.0858
आन	-11.0858
▁मोनो	-11.0858
▁सैक्सन	-11.0861
▁उत्परिवर्तन	-11.0863
ill	-11.0863
▁---	-11.0864
▁यंत्रों	-11.0866
▁क्रिस	-11.0866
▁कोच	-11.0868
▁स्टेशनों	-11.0869
▁प्रदर्शनी	-11.0873
▁ब्ल	-11.0878
▁अनंतपुर	-11.0878
▁बर्तन	-11.088
▁गुर्दे	-11.0883
थि	-11.0883
▁वास्तविकता	-11.0883
▁कस	-11.0886
▁जलीय	-11.0888
▁त्रिकोण	-11.0888
▁पण्डित	-11.0892
दीप	-11.0892
▁फैसले	-11.0892
▁झंडे	-11.0894
▁3000	-11.0899
▁व्य	-11.09
साहेब	-11.09
▁पैन	-11.09
▁नॉर्थ	-11.0901
ब्रह्म	-11.0901
खेरा	-11.0901
▁हॉलीवुड	-11.0902
▁हड्डी	-11.0903
▁आधी	-11.0904
▁द्रविड़	-11.0904
▁व्हाइट	-11.0905
वत्	-11.0914
▁पाठकों	-11.0917
▁बदलते	-11.0917
लियन	-11.0922
▁खिलाफ़	-11.0925
▁कारों	-11.0927
म्स	-11.0928
▁लिखना	-11.0932
▁मलेरिया	-11.0932
▁सम्पत्ति	-11.0932
▁41	-11.0935
्वी	-11.0938
▁पहना	-11.0938
▁प्रहार	-11.0939
▁पसंदीदा	-11.0942
▁अनुपस्थिति	-11.0944
▁स्थिरता	-11.0948
पंच	-11.0951
▁मातृ	-11.0951
बस	-11.0953
▁छीन	-11.0953
▁सैम	-11.0955
▁अवि	-11.0958
▁गिना	-11.0961
▁दोबारा	-11.0962
-10	-11.0969
▁54	-11.0971
▁सबके	-11.0976
▁आधारभूत	-11.0978
▁अनुष्ठान	-11.0979
▁हसन	-11.0981
▁शोधकर्ताओं	-11.0985
तत्व	-11.0988
▁गंग	-11.0988
▁फ़े	-11.0989
▁अलाउद्दीन	-11.0992
sa	-11.0994
एक्स	-11.0996
▁जाएंगे	-11.0998
▁सार्वभौमिक	-11.1003
बंद	-11.1004
▁कोल	-11.101
विद्	-11.1011
▁कालिदास	-11.1012
▁प्रोजेक्ट	-11.1013
न्ध	-11.1014
बर्ट	-11.1015
▁सम्राट्	-11.1016
land	-11.1017
▁मोटी	-11.1021
▁धूम्रपान	-11.1022
▁मंत्रिमंडल	-11.1022
र्जन	-11.1025
▁मूर	-11.1029
▁राष्ट्रवादी	-11.1031
se	-11.1032
▁बंदूक	-11.1032
ात्	-11.1033
▁निकली	-11.1034
▁झीलों	-11.1034
पिंग	-11.1037
▁भुज	-11.1041
▁कहती	-11.1042
▁चक्रवर्ती	-11.1043
▁देंगे	-11.1046
mi	-11.1047
प्रदान	-11.1047
प्रधान	-11.1047
▁निकलते	-11.1047
▁पच	-11.105
▁श्वास	-11.1052
▁आपराधिक	-11.1052
ग्ल	-11.106
▁पर्ल	-11.1061
▁शंकु	-11.1062
▁चढ़ा	-11.1065
▁सैयद	-11.1072
▁किरणों	-11.1073
▁घड़ी	-11.1073
me	-11.1079
▁मुखिया	-11.1081
▁कंपनियां	-11.1083
▁श्रमिकों	-11.1086
▁शुक्राणु	-11.1086
▁सर्वत्र	-11.1087
▁सत	-11.1088
नव	-11.1094
▁देन	-11.1098
▁8.	-11.1101
▁बीटा	-11.1103
▁1905	-11.1105
▁राह	-11.1107
▁उद	-11.1111
सिटी	-11.1112
पुरुष	-11.1113
▁श्	-11.1115
स्टो	-11.1116
▁उदर	-11.1118
▁आजीवन	-11.112
▁टूर	-11.1121
▁निषेध	-11.1122
▁पत्तियों	-11.1123
▁बांट	-11.1124
ट्टा	-11.1124
दीन	-11.1125
▁मदन	-11.1126
मण्डल	-11.1132
▁फीचर	-11.1133
▁चिली	-11.1139
आप	-11.1139
वर्ण	-11.1139
▁गोलाकार	-11.1145
▁this	-11.1153
ोज	-11.1155
वारा	-11.1155
▁चांदी	-11.1156
▁कस्बा	-11.1158
▁उपग्रहों	-11.1162
▁सहन	-11.1163
उद	-11.1163
▁घंटों	-11.1164
▁सफाई	-11.1166
यक	-11.117
▁गणितज्ञ	-11.1173
▁इमारतें	-11.1173
▁सहारे	-11.1173
▁घोष	-11.1177
▁केबल	-11.1177
▁बेला	-11.118
▁व्यंजनों	-11.118
▁घोर	-11.1182
रचना	-11.1183
▁कार्टून	-11.1183
▁चैंपियन	-11.1183
▁were	-11.1184
89	-11.1184
▁योनि	-11.1188
नान	-11.1191
▁चक्रवात	-11.1193
डब्ल्यू	-11.1193
▁सामुदायिक	-11.1193
▁भूतपूर्व	-11.1194
िकाओं	-11.1196
ीपुर	-11.1197
नाइट	-11.1197
ुद	-11.1198
▁कांच	-11.1198
▁पैसा	-11.1198
▁पालि	-11.1202
▁चूना	-11.1203
▁त्वरित	-11.1204
▁खनन	-11.1204
▁दर्शाते	-11.1205
tion	-11.1207
ंदा	-11.1213
▁सुदृढ़	-11.1214
▁कास्त्रो	-11.1215
टसेनी	-11.1215
▁विस्तारित	-11.1215
▁अनन्त	-11.1218
▁माई	-11.1222
▁एयरलाइन	-11.1228
▁फ़ाइल	-11.1229
▁ट्रीय	-11.1231
▁नमूना	-11.1234
▁आश्रित	-11.1234
▁लेखांकन	-11.1235
अव	-11.1236
▁हीरा	-11.124
विश्व	-11.1241
▁विश्वकोश	-11.1241
▁जीती	-11.1242
▁समूच	-11.1246
▁27.5	-11.1251
▁विश्वसनीय	-11.1252
▁गर्भाशय	-11.1255
▁क्ले	-11.1255
▁लाभदायक	-11.1256
▁यूरोपियन	-11.126
▁आमेर	-11.1263
कवि	-11.1264
▁दिमाग	-11.1265
▁स्वचालित	-11.1266
▁कोयले	-11.1266
ग्रा	-11.1268
▁थल	-11.1269
ुला	-11.127
▁यूरो	-11.127
ॉय	-11.1272
▁मस	-11.1274
▁}	-11.1276
वर्त	-11.1276
▁बालों	-11.1276
▁1941	-11.1277
▁Mo	-11.1281
ig	-11.1285
स्टिक	-11.1286
▁चाचा	-11.1287
▁साहस	-11.1288
▁पैनल	-11.1294
▁साधु	-11.1296
▁वुड	-11.1296
▁धर्मशास्त्र	-11.1301
▁डॉन	-11.1302
▁An	-11.1303
▁ऐन	-11.1303
▁सेवाएँ	-11.1305
ard	-11.1306
▁लेनदेन	-11.1306
ge	-11.131
श्र	-11.1314
▁व्या	-11.1316
▁स्थाई	-11.1317
▁कुर	-11.1319
▁फ्रांसिस	-11.132
▁बुध	-11.1321
▁राजेन्द्र	-11.1323
▁इसमे	-11.1323
▁बां	-11.1324
ag	-11.1327
▁टेक	-11.1327
▁यन्त्र	-11.1332
▁==	-11.1333
▁इनपुट	-11.1333
▁अस्पष्ट	-11.1338
रोधी	-11.1338
▁स्वतः	-11.1341
▁ऑस्ट्रिया	-11.1344
▁बेचा	-11.1345
▁रैंक	-11.1347
▁उपर	-11.1348
▁कोट	-11.1349
▁यश	-11.135
▁आसन	-11.1356
▁क्षरण	-11.1358
▁फैशन	-11.1359
▁महानगर	-11.1362
▁कराते	-11.1363
परा	-11.1365
▁हिंसक	-11.1368
▁चैंपियनशिप	-11.1368
▁अन्तर्	-11.137
▁85°	-11.1372
▁लगाई	-11.1374
वारी	-11.1377
▁क्षैतिज	-11.1379
▁बेगूसराय	-11.1379
ण्डा	-11.1384
▁कर्नल	-11.1385
▁निरूपण	-11.1385
▁कैबिनेट	-11.1389
ध्य	-11.1389
▁फ़्रांस	-11.1389
▁आपेक्षिकता	-11.1393
▁विशेषताएँ	-11.1396
▁रेटिंग	-11.1397
▁दोहरा	-11.1399
▁इंस्टीट्यूट	-11.1399
▁पिट	-11.1401
▁ग्रिड	-11.1405
▁अनियमित	-11.141
▁रोचक	-11.1411
▁ब्यूरो	-11.1413
र्ण	-11.1414
▁प्रश्नों	-11.1417
▁देशांतर	-11.1418
▁फुल	-11.142
▁डाउनलोड	-11.142
वाया	-11.1425
मापी	-11.1426
फ्र	-11.1427
▁क्षमा	-11.143
▁पूजन	-11.1432
▁स्विच	-11.1432
end	-11.1434
फि	-11.1436
▁ज़ी	-11.1437
▁जीवनकाल	-11.1437
▁चमत्कार	-11.1437
▁ब्राउन	-11.1441
▁कतिपय	-11.1441
▁तिरुपति	-11.1441
हरि	-11.1443
▁रजत	-11.1447
▁इथियोपिया	-11.1451
▁हल्का	-11.1458
5°00′	-11.1462
▁कश्यप	-11.1462
▁पराजय	-11.1462
▁केन्द्रों	-11.1466
▁प्रस्थान	-11.1466
्यो	-11.1468
▁आंखों	-11.1469
सेना	-11.1471
▁डै	-11.1472
▁दोपहर	-11.1472
▁बाँट	-11.1475
▁तस्वीर	-11.148
▁10,000	-11.1481
प्रसार	-11.1481
▁आयुक्त	-11.1482
▁मोड	-11.1482
▁लॉन्च	-11.1483
▁उत्थान	-11.1483
्टर	-11.1483
▁दूरसंचार	-11.1484
▁नागा	-11.1485
सर्व	-11.1486
▁63	-11.1486
▁ईंट	-11.1487
▁मर्	-11.1489
▁चौड़ा	-11.1491
▁फार्रूखाबाद	-11.1493
sh	-11.1495
▁1934	-11.1495
▁1938	-11.1496
Upload	-11.1504
▁पोशाक	-11.1504
▁ई॰	-11.1505
▁सिम	-11.1507
▁अभिव्यक्त	-11.1512
▁भंडारण	-11.1518
▁वाई	-11.1519
ाए	-11.152
▁एम्	-11.152
▁प्ला	-11.1524
▁पुर्तगाल	-11.1524
▁चित्रकार	-11.1525
▁ब्रितानी	-11.1525
▁अपशिष्ट	-11.1525
▁पॉटर	-11.1526
म्म	-11.1527
ॉल	-11.1532
▁ग्रीस	-11.1532
▁अस्	-11.1534
▁स्वयंसेवक	-11.1535
▁पंचांग	-11.1537
▁विस्फोटक	-11.1541
ah	-11.1543
पाठ	-11.1544
▁छोड़ा	-11.1544
▁कोरियाई	-11.1549
टक	-11.1549
▁स्टै	-11.1551
▁बिक	-11.1553
▁शर्तों	-11.1556
ख्या	-11.1558
ach	-11.1562
▁संचित	-11.1563
▁खां	-11.1565
▁मानवता	-11.1565
▁परिष्कृत	-11.1568
ेटर	-11.1571
ेला	-11.1571
da	-11.1574
▁टकरा	-11.1574
ोसिस	-11.1576
▁चयापचय	-11.1578
▁हार्डवेयर	-11.1578
ग्रस्त	-11.1578
▁पर्याय	-11.1579
गै	-11.1579
▁स्वाधीनता	-11.1581
▁जादू	-11.1584
▁उपनिषद	-11.1584
द्य	-11.1586
बेन	-11.1588
ंबर	-11.1588
▁संचरण	-11.159
चीन	-11.1591
िंगटन	-11.1592
जिस	-11.1592
रक	-11.1595
▁उदाहरणार्थ	-11.1595
शियन	-11.1598
▁देहांत	-11.1604
▁भाग्य	-11.1605
▁भजन	-11.1607
em	-11.1614
▁पुरस्कारों	-11.1614
र्प	-11.1616
जीवी	-11.1619
्ते	-11.1619
▁पुर्णिया	-11.162
▁भावों	-11.1621
▁सघन	-11.1622
▁700	-11.1622
ेगा	-11.1625
▁ट्रॉफी	-11.1631
▁सूजन	-11.1632
▁मिन	-11.1634
▁वाल	-11.1635
▁1910	-11.1635
पाइ	-11.1639
▁खजुराहो	-11.1641
▁ध्वस्त	-11.1641
▁डाक्टर	-11.1642
साइड	-11.1645
▁53	-11.1646
▁बद	-11.1646
▁कलां	-11.1646
▁नाव	-11.1647
▁निकाली	-11.1648
▁Ma	-11.1648
▁समझना	-11.1651
▁भिक्षु	-11.1663
ायत	-11.1664
▁स्राव	-11.1668
▁सर्जरी	-11.1673
▁शस्त्र	-11.1675
▁पूर्वजों	-11.1676
▁दुख	-11.1677
नायक	-11.168
ज़े	-11.1684
▁ग्राम्य	-11.1686
ेन्स	-11.1686
ts	-11.1688
र्च	-11.169
▁भारती	-11.1695
▁त्रिभुज	-11.1695
▁राष्ट्रमण्डल	-11.1697
कड़	-11.1698
गू	-11.1699
ाड	-11.1699
▁बर्न	-11.17
▁ओडिशा	-11.1706
▁अयस्क	-11.1706
3%	-11.1706
▁प्रतिरूप	-11.1709
▁घूम	-11.171
▁भीषण	-11.1712
▁लॉजिक	-11.1713
▁जिब्राल्टर	-11.1716
▁कवच	-11.172
▁शुरूआती	-11.172
▁संभाला	-11.1722
ूं	-11.1722
टिव	-11.1723
▁आर्थर	-11.1726
▁स्थानांतरण	-11.1729
▁आंबेडकर	-11.1738
▁मामूली	-11.1738
▁आखिर	-11.1741
▁वंचित	-11.1749
▁अमीरात	-11.1749
▁फरीदपुर	-11.175
▁झुकाव	-11.1752
▁1915	-11.1753
▁हिरण	-11.1753
▁जानेवाले	-11.1753
▁ट्राइ	-11.1758
▁सत्रह	-11.1761
▁ग्रंथि	-11.1762
विस	-11.1764
▁शत	-11.1764
Xj	-11.1764
▁छठे	-11.1765
गिरि	-11.1766
▁बड़	-11.1768
▁डूब	-11.1768
if	-11.177
▁पुरातात्विक	-11.177
शिव	-11.1775
▁लाइ	-11.1776
▁अध्यापन	-11.1778
▁रास	-11.1779
▁परिश्रम	-11.1781
▁टैगोर	-11.1782
▁स्कॉट	-11.1784
▁गोल्डन	-11.1788
07	-11.1789
▁प्रतिज्ञा	-11.179
▁नाप	-11.1796
▁कम्प	-11.1797
▁डेल्टा	-11.1802
▁विधवा	-11.1804
सामान्य	-11.1804
▁नवीनतम	-11.1804
सिंग	-11.1805
▁प्रविष्ट	-11.1807
▁मिथिला	-11.1807
▁ग्रि	-11.181
▁कट्टर	-11.1814
राग	-11.1815
ात्म	-11.1818
▁ब्राज़ील	-11.1824
▁me	-11.1827
टिया	-11.1827
द्वीप	-11.1828
▁मल्ल	-11.1829
▁1911	-11.1829
▁ख़ुद	-11.183
▁De	-11.1834
▁टेलीविज़न	-11.1835
▁नवजात	-11.1836
काम	-11.1836
▁अनुचित	-11.1836
श्य	-11.1843
वेर	-11.1846
▁लौटा	-11.1846
ेक्ट	-11.1852
▁अकार्बनिक	-11.1852
▁लौटे	-11.1852
▁ललित	-11.1853
▁कन्नड	-11.1855
▁अज	-11.1859
▁1500	-11.1862
▁गुणसूत्र	-11.1863
▁जलप्रपात	-11.1868
▁1912	-11.1872
▁बताई	-11.1875
मूर्ति	-11.1876
▁संगत	-11.1877
▁रेजिमेंट	-11.1879
▁कारावास	-11.1879
▁रक्षक	-11.188
▁गुजर	-11.1881
▁चिह्नित	-11.1881
ोत	-11.1884
▁क्	-11.1884
षण	-11.1885
ाभ	-11.1887
▁विजयनगर	-11.1887
▁निष्ठा	-11.1889
▁ऑर	-11.1891
▁बदलता	-11.1892
▁बिगड़	-11.1894
▁अंग्रेज़ों	-11.1895
▁मन्त्री	-11.1896
सुर	-11.1897
यंत्र	-11.1901
▁लेप	-11.1901
ौरी	-11.1901
▁पश्च	-11.1902
ैम	-11.1904
▁शिकारी	-11.1905
▁सुंदरता	-11.1906
▁आचार	-11.1907
▁कैमरून	-11.1911
▁मुकदमे	-11.1911
्ने	-11.1917
▁कमांडर	-11.1918
सेवा	-11.1918
▁रिश्ते	-11.1919
▁सातवीं	-11.1923
▁हिटलर	-11.1924
▁सांख्य	-11.1926
▁इंसान	-11.1929
▁सन्त	-11.193
▁कटौती	-11.1933
ance	-11.1934
▁बनाम	-11.1937
▁अर्थों	-11.1938
▁लार्ड	-11.1941
▁यूके	-11.1941
▁भालू	-11.1946
रक्षित	-11.1947
▁विनिर्माण	-11.1948
pe	-11.1948
▁वास्तुकार	-11.195
▁66	-11.1951
▁खिल	-11.1951
▁रिहा	-11.1952
▁तीर्थंकर	-11.1956
▁कैमरा	-11.1957
▁कैल	-11.1958
▁खाल	-11.1958
▁निष्पादन	-11.1959
7%	-11.1961
▁कूद	-11.1962
रत्न	-11.1967
▁सामरिक	-11.1967
मंद	-11.1968
▁बग	-11.1969
▁रूम	-11.1971
▁इलेक्ट्रॉनिक्स	-11.1971
▁विचारक	-11.1975
▁कुशलता	-11.1977
▁पान	-11.1977
▁दबा	-11.1978
▁रूट	-11.1979
▁68	-11.1981
ss	-11.1984
▁गलती	-11.1985
▁साइन	-11.1988
ेन्	-11.1989
▁पालम	-11.1989
▁पाचन	-11.199
▁विश्राम	-11.1991
▁1916	-11.1992
▁परजीवी	-11.1994
▁रुख	-11.1996
▁संवत्	-11.1996
▁सुई	-11.1997
्रिया	-11.1998
▁जोशी	-11.1999
▁have	-11.2
▁स्वत	-11.2004
कार्ड	-11.2004
4°49′	-11.2006
क्ट	-11.2007
▁79°24′	-11.201
▁आस्ट्रिया	-11.2011
▁बालू	-11.2016
▁मनाने	-11.2019
▁परमेश्वर	-11.2023
▁कपड़ा	-11.2026
▁प्रतियोगिताओं	-11.2026
▁घटा	-11.2029
▁रिजर्व	-11.203
▁गुणा	-11.203
▁ज़रूरत	-11.203
रुप	-11.2031
▁परशुराम	-11.2033
▁प्रकारों	-11.2035
▁ढेर	-11.2038
▁1.5	-11.2039
ैल	-11.2039
पृष्ठ	-11.204
▁चिड़ियाघर	-11.2044
▁27°30′	-11.2044
▁असंख्य	-11.2044
कल्प	-11.2048
▁Indian	-11.2048
▁परिपूर्ण	-11.2048
▁इंकार	-11.205
▁शरीफ	-11.2054
आर्य	-11.2055
▁नागरिकता	-11.2056
मेड	-11.2058
▁विद	-11.206
▁कामयाब	-11.2061
ाण	-11.2063
गम	-11.2064
▁राक्षस	-11.2064
▁क्रिसमस	-11.2066
▁27.5°	-11.2069
्रि	-11.2078
▁चार्ज	-11.2078
▁लक्ष्यों	-11.208
tra	-11.2081
ga	-11.2083
खर	-11.2086
निर्मित	-11.2087
▁गेल	-11.2088
▁मेघालय	-11.2088
▁प्रबन्ध	-11.209
▁800	-11.2094
सेंट	-11.2098
▁माहौल	-11.21
▁जवाहर	-11.2101
▁जायेगी	-11.2102
▁सीजन	-11.2103
▁कोशिकाएं	-11.2106
▁राज्	-11.2114
▁लड़के	-11.2116
कॉ	-11.2118
इट	-11.212
▁मोल	-11.2121
▁आनुवांशिक	-11.2122
▁सुसज्जित	-11.2122
हत	-11.2122
▁उपाध्यक्ष	-11.2123
▁चीजें	-11.2125
▁भूरे	-11.2129
▁pro	-11.213
इड	-11.2131
▁ब्लॉग	-11.2133
ci	-11.2133
गेट	-11.2134
▁निपटने	-11.2134
▁विकृत	-11.2135
▁उपन्यासकार	-11.2136
▁मजदूरों	-11.2137
▁घाव	-11.2137
▁शोर	-11.2138
▁साइकिल	-11.2142
ॅल	-11.2142
▁गिलगित	-11.2144
▁पायलट	-11.2144
▁चेष्टा	-11.2144
▁बोलचाल	-11.2144
▁कराई	-11.2146
▁बाँटा	-11.2152
▁खोजने	-11.2154
फाई	-11.2157
चिंग	-11.2161
▁पराग	-11.2162
▁जिन्ना	-11.2163
णि	-11.2164
▁अपभ्रंश	-11.2166
ंथ	-11.2167
▁शोभा	-11.2169
▁कराची	-11.2171
▁क्रय	-11.2171
▁बोझ	-11.2176
▁ऊन	-11.2176
▁कोलेस्ट्रॉल	-11.2178
▁ख़िलाफ़	-11.2178
▁कुत्ते	-11.2179
▁1923	-11.2181
▁इस्लामिक	-11.2181
▁जानता	-11.2183
vi	-11.2184
धे	-11.2187
▁सुप्रीम	-11.2189
oc	-11.219
▁1943	-11.2191
▁कलाओं	-11.2192
देन	-11.2197
खे	-11.2198
▁82	-11.2201
ell	-11.221
▁बदलती	-11.221
▁सूफी	-11.2212
▁बरकरा	-11.2213
मीन	-11.2215
6%	-11.2217
▁चाँदी	-11.2217
▁कद	-11.2221
▁प्रेसीडेंसी	-11.2223
▁49	-11.2224
वश	-11.2226
▁काच	-11.223
▁हजरत	-11.223
▁बसाया	-11.2233
ियापुर	-11.2233
▁मुद्दा	-11.2234
▁प्रशंसकों	-11.2239
▁बैर	-11.2239
▁जनसांख्यिकी	-11.2243
▁नरसिंह	-11.2244
चरण	-11.2244
▁क्वांटम	-11.2245
▁वाय	-11.2245
▁दूरबीन	-11.2247
रित	-11.2247
▁विंडोज़	-11.2248
▁सौन्दर्य	-11.2248
भाषी	-11.2248
▁पेशवा	-11.225
▁अभियानों	-11.2251
▁प्रेमी	-11.2251
लस	-11.2252
ist	-11.2253
नै	-11.2255
▁समाजवाद	-11.2257
▁परमात्मा	-11.2257
▁संध्या	-11.2259
वृत्ति	-11.226
▁फारस	-11.2263
ेस्ट	-11.2266
▁शे	-11.2269
▁हाँ	-11.2269
▁1933	-11.227
▁घुस	-11.2274
▁सोशल	-11.2276
म्मा	-11.2277
▁वायुमंडलीय	-11.2277
▁St	-11.2277
▁कोच्चि	-11.228
▁हार्डी	-11.228
स्था	-11.2281
र्ष	-11.2283
▁अनौपचारिक	-11.2291
▁जैसलमेर	-11.2291
▁अद्यतन	-11.2291
▁वैद्युत	-11.2292
▁राजनयिक	-11.2293
▁महानगरीय	-11.2296
▁मरीजों	-11.2299
बाजी	-11.23
▁अवशोषित	-11.2302
▁स्पोर्ट्स	-11.2304
▁दिलाने	-11.2304
▁कॉमेडी	-11.2314
▁समाहित	-11.2314
अभि	-11.2315
▁तन	-11.2317
वेट	-11.2326
▁खेतों	-11.2326
स्थिति	-11.2326
▁वनस्पतियों	-11.2329
▁इट	-11.2336
▁पश्चिमोत्तर	-11.234
इसके	-11.2341
▁विशुद्ध	-11.2342
त्ता	-11.2346
▁वैसा	-11.2348
▁उल्लिखित	-11.2348
▁1908	-11.2351
▁मेहता	-11.2357
▁कोयंबतूर	-11.2359
▁डेनमार्क	-11.2359
▁संभाल	-11.236
▁आईपी	-11.2361
बिया	-11.2364
▁बडी	-11.2372
Xq	-11.2376
गिरी	-11.2377
स्ती	-11.2378
▁क्षमताओं	-11.2378
ील	-11.238
ana	-11.238
▁मिमी	-11.238
▁उदहारण	-11.2382
▁वीर्य	-11.2383
▁मूर्तियां	-11.2386
निर्	-11.2386
▁विचित्र	-11.2387
ट्री	-11.2387
▁उपभोक्ताओं	-11.239
ोनिया	-11.2392
▁ब्रे	-11.2392
▁उत्तराखंड	-11.2394
▁बलिदान	-11.2394
▁शनिवार	-11.2395
▁भावनात्मक	-11.2395
▁बताती	-11.2397
▁बीमारियों	-11.2399
▁निभाने	-11.2402
▁शास्त्रों	-11.2403
▁दुबई	-11.2405
▁अकेला	-11.2405
▁कालीकट	-11.2406
▁बाजारों	-11.2408
▁फ्र	-11.241
▁दूरदर्शन	-11.241
बरा	-11.2412
यात्रा	-11.2413
▁शरद	-11.2416
▁संपादित	-11.2417
▁डालते	-11.2417
साल	-11.2417
▁निक	-11.2423
▁वीरता	-11.2423
दृ	-11.2423
▁प्रदाता	-11.2426
▁नु	-11.2427
▁बाला	-11.2433
▁आईटी	-11.2438
▁विराजमान	-11.244
▁घु	-11.2444
गुल	-11.2448
▁मन्दिरों	-11.2449
▁इक	-11.245
▁5000	-11.2454
▁अग्रसर	-11.2454
▁छू	-11.2455
विजय	-11.2463
▁इन्दिरा	-11.2463
▁हवेली	-11.2463
▁गर्दन	-11.2463
▁बसें	-11.2463
▁निकटवर्ती	-11.2465
▁एस्	-11.2465
▁विस्	-11.2466
▁सूचकांक	-11.2466
▁ड्रम	-11.2466
टु	-11.2467
▁बतौर	-11.2475
▁पहने	-11.2477
▁विज्ञानी	-11.248
▁विज्ञापनों	-11.2482
▁गन	-11.2482
मिर	-11.2482
▁विद्रोही	-11.2485
▁also	-11.2486
▁गुहा	-11.2487
बारी	-11.2487
▁बल्लेबाजी	-11.249
▁ष	-11.2494
▁US	-11.2494
▁भयानक	-11.2498
▁मधुमेह	-11.2498
▁कवक	-11.2499
▁धुन	-11.2501
▁वॉल	-11.2502
विधान	-11.2505
▁लड़	-11.2506
▁बनीं	-11.2506
▁उभरा	-11.2509
▁बॉम्बे	-11.2509
ासन	-11.2512
क्ले	-11.2516
ru	-11.2517
▁बम्बई	-11.2521
नेवाले	-11.2521
प्रद	-11.2521
▁नागर	-11.2523
▁तपेदिक	-11.2528
▁फाइल	-11.2528
▁फ़िल्में	-11.2529
▁महत्	-11.2531
▁यूनेस्को	-11.2532
▁हांगकांग	-11.2532
▁महासचिव	-11.2533
सभा	-11.2534
▁चैप्लिन	-11.2534
▁इंक	-11.2538
▁शिष्यों	-11.2538
ग्ग	-11.2541
बोर्ड	-11.2542
▁कर्नूलु	-11.2544
▁इंग्लिश	-11.2544
▁त्रिज्या	-11.2544
▁अपहरण	-11.2545
▁पिन	-11.2545
▁09	-11.2547
बॉ	-11.255
▁9.	-11.255
▁किताबें	-11.2552
▁प्रवर्तक	-11.2554
▁दस्त	-11.2555
▁कराती	-11.2555
▁आधिपत्य	-11.2556
िज्म	-11.2556
▁संस्	-11.2556
▁टाइगर	-11.2556
▁ब्रिज	-11.2556
▁जाएं	-11.2561
▁पेरू	-11.2562
▁क्लो	-11.2562
शब्द	-11.2564
▁जीवाणुओं	-11.2564
▁पाट	-11.2564
▁वॉन	-11.2565
▁ड्यूक	-11.2566
▁उत्तरदायित्व	-11.2568
▁क्रान्तिकारी	-11.2569
ष्ण	-11.2569
▁इलाका	-11.2569
▁विकृति	-11.2576
▁अवस्थाओं	-11.2578
▁निमित्त	-11.2579
▁भेजी	-11.2579
▁मरीज	-11.2583
▁वाशिंगटन	-11.2583
▁मापा	-11.2583
:00	-11.2585
कॉन	-11.2585
▁परवर्ती	-11.259
्सी	-11.259
▁हस्तांतरण	-11.2591
क्टर	-11.2591
सरी	-11.2592
कांत	-11.2593
दारी	-11.2595
▁शोक	-11.2596
▁बिस्मिल	-11.2598
▁ex	-11.2599
ॅन	-11.26
थ्र	-11.2601
▁71	-11.2603
▁टॉप	-11.2604
▁1914	-11.2606
▁ग़	-11.2614
▁अनिश्चित	-11.2614
द्रा	-11.2615
ya	-11.2617
ेत	-11.2619
▁मुगलों	-11.2625
▁एंजिल्स	-11.2626
▁88	-11.2627
▁काबुल	-11.2628
▁लाला	-11.263
▁तोड़ने	-11.2631
ated	-11.2633
मणि	-11.2633
ुत	-11.2636
▁ऋ	-11.2636
वली	-11.2637
min	-11.2637
▁टरबाइन	-11.2638
▁बहरहाल	-11.2638
▁मांसपेशियों	-11.2638
▁मकबरा	-11.2638
▁बैठने	-11.264
▁आदिम	-11.2644
▁बौ	-11.2645
▁पढ़	-11.2646
▁वृद्ध	-11.2648
▁तार्किक	-11.265
ाधिकार	-11.265
ोवा	-11.2654
किया	-11.2657
mp	-11.2659
▁इलाक़े	-11.2661
▁संतुलित	-11.2661
▁मेहनत	-11.2662
▁पद्धतियों	-11.2662
▁मापने	-11.2663
▁1926	-11.2664
▁सख्त	-11.2666
ap	-11.2667
▁आंत	-11.2673
▁प्रायोगिक	-11.2673
दरी	-11.2674
▁i	-11.2675
Xm	-11.2678
▁Sh	-11.2679
▁दुकानों	-11.268
▁?	-11.2681
▁खींच	-11.2689
▁कटरी	-11.2691
ांचल	-11.2691
▁बज	-11.2695
▁हर्ष	-11.2696
▁क्षतिग्रस्त	-11.2697
od	-11.2697
▁राज्यसभा	-11.2698
▁सोमवार	-11.2699
▁परिधि	-11.2699
▁दांतों	-11.2701
▁लाइफ	-11.2703
▁अनुभवों	-11.2705
ern	-11.2706
▁वोल्टता	-11.2707
▁चलन	-11.2708
ver	-11.2708
▁एफबीआई	-11.2709
▁निवारण	-11.2709
▁मदीना	-11.2709
▁मुकुट	-11.2709
▁शान	-11.2711
▁तलाक	-11.2715
क्सी	-11.2719
▁अछूत	-11.272
धु	-11.2721
▁10.	-11.2722
▁दर्शाती	-11.2722
ical	-11.2723
▁प्रान्तों	-11.2723
डै	-11.2726
नम	-11.2729
▁ज़रूरी	-11.2731
▁लय	-11.2732
▁अलंकृत	-11.2732
▁कार्तिक	-11.2733
▁आज़ादी	-11.2733
रपुर	-11.2738
ज्य	-11.2739
▁गोआ	-11.2739
▁अजय	-11.274
▁पाठ्य	-11.2741
▁फट	-11.2743
किल	-11.2748
▁समुच्चय	-11.2749
▁उलट	-11.275
▁साझेदारी	-11.2751
ग्राफ	-11.2752
▁दायरे	-11.2753
▁चौदह	-11.2753
▁क्षार	-11.2755
ुस	-11.2755
▁यॉर्क	-11.2756
▁मदुरई	-11.2756
▁पौडी	-11.2759
▁खर	-11.276
▁सूअर	-11.2761
▁ह्रास	-11.2761
▁कॉफी	-11.2762
▁अंध	-11.2763
ित्र	-11.2764
वित	-11.2768
▁चमड़े	-11.2768
▁फीसदी	-11.2768
ल्प	-11.2769
▁सूक्ष्मदर्शी	-11.2769
▁Le	-11.277
डेट	-11.277
थर	-11.2778
▁जागीर	-11.279
▁अभिप्राय	-11.2792
▁गुज़र	-11.2794
▁एक्सरे	-11.2794
▁क़ुरआन	-11.2795
▁कुलीन	-11.2795
▁इलेक्ट्रान	-11.2799
बाड़ी	-11.2802
▁कस्बे	-11.2805
▁परमाणुओं	-11.2805
▁कायमगंज	-11.2805
▁दस्तावेज़	-11.2808
▁दृढ़ता	-11.2813
मिनी	-11.2813
▁उपेक्षा	-11.2816
▁पलायन	-11.2817
▁भूवैज्ञानिक	-11.2817
▁ज़रा	-11.2818
वेश	-11.2818
▁ड्राइवर	-11.2819
▁लगीं	-11.2819
▁राजतंत्र	-11.282
▁बढा	-11.2821
ग्रे	-11.2829
राइ	-11.2829
▁पोर्टलैंड	-11.283
▁सिं	-11.2834
ीना	-11.284
▁समर	-11.2842
▁नाडु	-11.2844
▁कॉमिक्स	-11.2845
सिद्ध	-11.2851
▁कोर्स	-11.2852
ल्टन	-11.286
▁डार्विन	-11.2864
▁वस्तुएं	-11.2865
▁1907	-11.2866
▁अपराधों	-11.2867
वाड़	-11.2872
▁बॉल	-11.2874
मानी	-11.2875
लिए	-11.2875
▁क्षितिज	-11.2876
-5	-11.2879
▁Pakistan	-11.2879
शोथ	-11.288
▁मूर्तियाँ	-11.288
▁बगल	-11.288
▁जोसेफ	-11.2881
▁घंटा	-11.2882
▁चिप	-11.2883
▁इंडो	-11.2885
▁समस्याएं	-11.2887
▁पलट	-11.2887
▁लाइब्रेरी	-11.2888
▁ट्वेंटी	-11.2888
▁बोलियों	-11.2888
▁क्लोरीन	-11.2888
▁देसाई	-11.289
-6	-11.2895
▁बारी	-11.2897
▁सद	-11.2898
▁50%	-11.2899
गेन	-11.2899
▁मैकमोहन	-11.29
▁कब्जे	-11.2902
▁मृग	-11.2904
▁मेयर	-11.2906
निस	-11.2907
भक्ति	-11.2908
▁करण	-11.2908
लम्ब	-11.2912
▁war	-11.2912
▁पाण्डव	-11.2912
▁आराधना	-11.2913
▁रखरखाव	-11.2913
▁खरीदा	-11.2915
▁मक	-11.2916
ीत	-11.2917
▁लैंड	-11.2919
▁चाप	-11.2919
▁मृदा	-11.292
ence	-11.2923
▁आस्ट्रेलिया	-11.2924
▁संरचनात्मक	-11.2927
▁बताए	-11.293
▁दहन	-11.2931
प्रवाह	-11.2932
▁स्टेट्स	-11.2933
▁पेंट	-11.2933
▁पेशी	-11.2935
▁क्रि	-11.2936
▁धाराओं	-11.2938
▁तत्	-11.2938
▁दारा	-11.294
▁ब्र	-11.2941
▁सत्	-11.2942
▁आर्मी	-11.2943
ेश्वरी	-11.2946
▁रेखाओं	-11.2946
▁हॉट	-11.2947
▁विन	-11.2948
प्रेम	-11.2948
देह	-11.2951
▁थॉमसन	-11.2951
▁ऋषियों	-11.2954
▁कर्	-11.2956
▁बरो	-11.2956
▁विपक्ष	-11.296
▁क्षीण	-11.2961
▁पादरी	-11.2966
▁साह	-11.2968
▁सेवक	-11.2969
▁स्वा	-11.2973
श्त	-11.2974
▁पेट्रोलियम	-11.2985
▁महोत्सव	-11.2986
▁थि	-11.2988
▁मोम	-11.2991
िकाएँ	-11.2994
▁हल्की	-11.2994
पित	-11.2997
▁गाँवों	-11.2997
▁मकबरे	-11.2997
▁सिज़ोफ्रेनिया	-11.2997
ोश	-11.2997
▁2.5	-11.2998
▁कॉर्पोरेट	-11.2998
▁नरम	-11.2999
▁भैरव	-11.2999
▁खुशी	-11.3001
दिया	-11.3005
▁डाले	-11.3006
्टि	-11.3006
▁विशेषज्ञता	-11.3009
▁एजेंसियों	-11.301
▁श्र	-11.3011
one	-11.3012
▁संकल्पना	-11.3013
▁अनुकूलन	-11.3014
▁अला	-11.3014
म्य	-11.3015
▁वॉ	-11.3018
▁प्रांगण	-11.3022
गोर	-11.3022
▁विक्रमादित्य	-11.3022
▁तिरु	-11.3028
चरित	-11.303
▁सेवानिवृत्त	-11.303
▁समर्थित	-11.3032
▁ग्लास	-11.3033
रियन	-11.3036
▁तंग	-11.3037
▁co	-11.3037
▁आंख	-11.3043
▁स्नेह	-11.3044
▁सल	-11.3044
ology	-11.3046
ैस	-11.3048
▁Me	-11.3049
▁स्टोन	-11.305
▁बेसिन	-11.3051
साइट	-11.3052
▁घी	-11.3053
▁निजाम	-11.3054
▁स्ट	-11.3056
▁भूविज्ञान	-11.3059
▁गुफाओं	-11.3067
▁न्यूज़	-11.3069
▁आशीर्वाद	-11.3071
▁had	-11.3072
कुंड	-11.3072
स्टोन	-11.3073
▁सच्चाई	-11.3074
▁गुप्ता	-11.3075
▁रचा	-11.3078
▁प्रे	-11.3082
वालों	-11.3083
करी	-11.3088
लित	-11.3091
▁रहमान	-11.3094
▁वेधशाला	-11.3096
▁वार्ड	-11.3097
▁महामारी	-11.3103
bo	-11.3107
▁वांछित	-11.3108
▁तथाकथित	-11.3111
ies	-11.3114
▁हाइड्रो	-11.3116
▁धमनी	-11.3118
▁सीमेंट	-11.312
▁वैन	-11.312
▁उत्तेजित	-11.312
बोल	-11.3125
▁फ़ि	-11.3127
▁कैट	-11.313
▁काटकर	-11.313
राष्ट्र	-11.3133
▁सोल	-11.3133
XI	-11.3135
यूरोपीय	-11.3137
▁विलियम्स	-11.314
▁माली	-11.3141
▁ह्रदय	-11.3146
▁सवारी	-11.315
XV	-11.315
्दी	-11.315
nt	-11.3155
▁अपमान	-11.316
▁विशिष्टता	-11.316
ब्रिटिश	-11.3161
शान	-11.3161
▁खुलासा	-11.3161
po	-11.3163
▁शब्दकोश	-11.3164
▁कराना	-11.3165
ष्टि	-11.3166
▁जमाने	-11.3166
▁लास	-11.3169
▁मिल्वौकी	-11.317
▁मेमोरी	-11.317
▁भास्कर	-11.317
ाकर	-11.3172
▁यों	-11.3175
▁आठवीं	-11.3175
िंस	-11.3176
नामा	-11.3182
▁बैंगलोर	-11.3182
▁चूर्ण	-11.3191
pi	-11.3192
▁नकल	-11.3193
▁कुष्ठरोग	-11.3195
य्या	-11.3195
▁कपड़ों	-11.3196
▁उधर	-11.32
▁हीरो	-11.3204
ॉक्स	-11.3212
▁उपवास	-11.3212
गणित	-11.3212
▁78.02	-11.3216
▁अग	-11.3219
▁प्राध्यापक	-11.3219
▁किलोग्राम	-11.322
▁नौकर	-11.3221
स्का	-11.3222
ग्रहण	-11.3224
▁कुंडली	-11.3224
ंका	-11.323
▁भण्डार	-11.323
▁नक्काशी	-11.3231
▁धर	-11.3232
ंसी	-11.3232
▁विवादित	-11.3232
▁अल्बर्ट	-11.3234
▁संचालक	-11.3234
▁1906	-11.3235
ran	-11.3235
▁मकर	-11.3237
▁उधार	-11.324
▁जरुरत	-11.3241
फ़र	-11.3242
▁ऐड	-11.3242
▁भाषाविज्ञान	-11.3244
▁सऊदी	-11.3244
ायी	-11.3245
्ना	-11.3246
▁मुजफ्फरपुर	-11.3246
फिन	-11.3247
▁समझे	-11.3247
पानी	-11.3248
▁कीर्ति	-11.3251
▁लौ	-11.3253
ni	-11.3256
▁78°01′	-11.3257
▁जनजातियों	-11.326
दादपुर	-11.3261
ure	-11.3263
▁अस्त्र	-11.3264
ेयर	-11.3265
▁हिंदुस्तानी	-11.3265
हस	-11.3265
▁खुराक	-11.327
ोम	-11.327
▁आतंक	-11.3272
▁लेह	-11.3272
म्बे	-11.3273
que	-11.3275
▁कांड	-11.3277
ph	-11.3277
क्ल	-11.3278
▁पुरूष	-11.3279
▁खाई	-11.3281
▁शृंगार	-11.3282
▁आउटपुट	-11.3282
▁बिर	-11.3282
▁टक्कर	-11.3282
▁रूढ़िवादी	-11.3282
▁मेघ	-11.3283
▁डेल	-11.3283
▁शीतकालीन	-11.3283
▁डोमेन	-11.3284
▁होतीं	-11.3285
ब्रिज	-11.3285
जिंग	-11.3286
कत	-11.3287
▁अगला	-11.3287
टेल	-11.3287
स्तु	-11.3293
▁टिक	-11.3294
▁मतों	-11.3294
▁कैल्शियम	-11.3295
▁27°11′	-11.3295
▁एप्पल	-11.3296
▁खनिजों	-11.3296
▁संक्रामक	-11.3298
▁पेपर	-11.33
चालक	-11.3304
▁नदियां	-11.3307
▁विलक्षण	-11.331
हिन्दी	-11.3312
he	-11.3316
▁अंडर	-11.3317
▁27.18	-11.3317
▁83	-11.3317
▁देरी	-11.3318
▁DVD	-11.332
माता	-11.3321
▁ज्	-11.3321
मित्र	-11.3323
▁युवाओं	-11.3326
राइट	-11.3327
ex	-11.3328
चिकित्सा	-11.3329
▁निरपेक्ष	-11.333
▁मज़बूत	-11.3332
▁लीटर	-11.3334
▁बाँस	-11.3334
वरी	-11.3337
ऐं	-11.3338
▁86	-11.3339
लिखित	-11.3339
▁लगाये	-11.3343
▁पोटैशियम	-11.3345
▁ग़ैर	-11.3345
▁टेक्नोलॉजी	-11.3348
▁27.18°	-11.3348
कीय	-11.3351
धाम	-11.3352
▁टाई	-11.3354
▁नार	-11.3354
ton	-11.3355
पेन	-11.3355
▁योगी	-11.3357
▁फायदा	-11.3358
ड़ो	-11.336
वात	-11.3363
▁युगल	-11.3364
गि	-11.3369
मौ	-11.337
▁कैम्ब्रिज	-11.337
▁प्रथाओं	-11.337
▁छुट्टी	-11.337
▁गुड़गांव	-11.3371
स्ट्रेट	-11.3371
int	-11.3372
▁गौण	-11.3373
ब्स	-11.3373
▁होनेवाले	-11.3373
▁78.02°	-11.3373
▁शर्करा	-11.3374
▁सौदा	-11.3377
▁III	-11.3377
▁कर्ता	-11.338
▁क्लास	-11.3381
▁%	-11.3382
▁दाहिने	-11.3383
▁पाषाण	-11.3384
ंजी	-11.3386
▁भैंस	-11.3386
शीलता	-11.3387
▁आवर्त	-11.3389
▁विवादों	-11.3389
ात्मा	-11.339
▁चर्चित	-11.339
▁प्रधानता	-11.339
कर्ण	-11.3392
▁पाकर	-11.3393
▁झीलें	-11.3393
▁उन्मूलन	-11.3396
▁टुकड़ों	-11.3396
▁रुधिर	-11.3396
▁फ्रांसिस्को	-11.3396
▁धमकी	-11.3397
▁आर्ट्स	-11.3402
▁दिक्	-11.3402
▁कंस	-11.3406
▁तिरुवनंतपुरम	-11.3408
▁गान	-11.3409
▁निर्वाण	-11.341
रिंग	-11.3411
▁सप्त	-11.3411
▁औषधियों	-11.3415
▁जाहिर	-11.3416
इन्	-11.3417
▁चिकित्सीय	-11.3421
▁सेठ	-11.3424
तया	-11.3425
▁मिलिक	-11.3425
▁अटल	-11.3429
▁फैलने	-11.3432
रियो	-11.3438
har	-11.344
▁विशेषण	-11.344
▁विशेषताएं	-11.3441
न्ग	-11.3441
ीं	-11.3443
▁गामा	-11.3445
▁रसीदपुर	-11.3447
▁सम्पादन	-11.3447
▁बिट	-11.3447
▁ऑडियो	-11.3447
▁वेल्श	-11.3448
▁फिट	-11.3451
▁मॉल	-11.3452
ट्रिक	-11.3458
▁प्रासंगिक	-11.3459
▁रेस्तरां	-11.3459
▁सामग्रियों	-11.3459
▁वरदान	-11.3462
मूलक	-11.3462
▁टॉवर	-11.3462
पोल	-11.3466
▁प्रकाशक	-11.3467
▁अंतः	-11.3468
▁चयनित	-11.3469
▁न्यूयार्क	-11.3472
▁परिदृश्य	-11.3473
▁62	-11.3476
▁हौ	-11.3476
्च	-11.3478
लक्षण	-11.3482
▁पूना	-11.3483
▁करीबी	-11.3484
▁कहानियां	-11.3485
▁मोटाई	-11.3489
बुल	-11.3491
▁95	-11.3492
वर्ड	-11.3495
▁मुन	-11.3495
▁श्रद्धालु	-11.3495
▁उपलब्धियों	-11.3496
▁मिलन	-11.3496
▁आंदोलनों	-11.3497
▁टैक्स	-11.3498
▁युधिष्ठिर	-11.3498
▁रिश्ता	-11.3498
▁गवाह	-11.3498
रेस	-11.3499
▁सराय	-11.35
▁San	-11.3503
▁टीपू	-11.3504
▁लाकर	-11.3505
बलीपुर	-11.3505
▁भव	-11.3509
▁गाथा	-11.3509
वैज्ञानिक	-11.351
घात	-11.351
ang	-11.351
▁अल्कोहल	-11.3511
▁शंघाई	-11.3511
▁डीवीडी	-11.3511
▁मैनचेस्टर	-11.3511
ंठ	-11.3511
रेल	-11.3512
▁सिन्हा	-11.3512
▁अलौकिक	-11.3512
▁मसलन	-11.3512
नाशक	-11.3519
बत	-11.3524
▁उदाहरणों	-11.3526
▁कच्छ	-11.3526
▁करवाने	-11.3531
ca	-11.3533
▁नाटककार	-11.3533
▁नाइजीरिया	-11.3536
▁मुद्रित	-11.3536
▁चालीस	-11.3538
▁विश	-11.3541
▁अस्त	-11.3541
▁साधारणत	-11.3545
ड़िया	-11.3546
म्बो	-11.3546
▁खोलने	-11.3547
क्य	-11.3547
▁ढाँचे	-11.3549
▁अन्तरिक्ष	-11.355
▁वोल्टेज	-11.355
▁has	-11.355
शिक्षा	-11.3551
ja	-11.3556
▁फ्ल	-11.3561
▁ऑक्सफोर्ड	-11.3562
▁सीबीएस	-11.3562
जन्म	-11.3563
▁दीर्घकालिक	-11.3563
-8	-11.3565
▁स्तुति	-11.3567
▁क्रमिक	-11.3568
ty	-11.357
▁गौड़	-11.3572
▁अंग्रेज़	-11.3572
▁अवशेषों	-11.3573
5,000	-11.3573
▁डालता	-11.3574
▁तुग़लक़	-11.3575
▁कैप	-11.3577
▁दुष्ट	-11.358
6,000	-11.358
▁शी	-11.3581
▁मध्यवर्ती	-11.3582
▁सम्बंध	-11.3582
मंड	-11.3584
▁उस्मान	-11.3584
▁पढ़े	-11.3588
वंत	-11.3588
▁वापिस	-11.3588
▁घटनाएं	-11.3588
▁वयस्कों	-11.3589
up	-11.3591
▁विजयी	-11.3591
▁रेलमार्ग	-11.3592
▁बहाव	-11.3598
▁सांख्यिकी	-11.36
▁ओक	-11.3602
ॉट	-11.3603
ड़ियों	-11.3603
io	-11.3604
▁कार्यकर्ताओं	-11.3605
▁महिमा	-11.3607
▁सर्ग	-11.3608
रियों	-11.3609
▁क्व	-11.361
▁one	-11.361
▁वर्णों	-11.3612
▁अप्रत्यक्ष	-11.3615
▁वाजपेयी	-11.3615
फेर	-11.3615
▁गैलरी	-11.3616
▁1,000	-11.3617
▁his	-11.3618
▁ओस	-11.3619
▁उपज़िला	-11.3624
▁नियोजन	-11.3625
▁फूट	-11.3627
▁रामचंद्र	-11.3627
▁मुंगेर	-11.3627
▁सन्देश	-11.3627
▁गल	-11.3627
▁हावड़ा	-11.3627
son	-11.3629
विध	-11.3634
▁युग्म	-11.3635
▁समीक्षकों	-11.3636
▁कुंजी	-11.3637
▁कोटा	-11.3638
▁गोले	-11.3638
▁विस्थापित	-11.3641
▁आखिरकार	-11.3642
▁दूरदर्शी	-11.3642
हाई	-11.3643
▁हर्	-11.3646
▁मैक्स	-11.3646
स्कर	-11.3648
▁राज्याभिषेक	-11.3653
▁कैलाश	-11.3653
▁कांस्य	-11.3653
ations	-11.3657
▁कब्ज़ा	-11.3658
▁रतन	-11.366
▁नान	-11.3661
नन	-11.3662
नाग	-11.3662
▁संज्ञानात्मक	-11.3664
ंकर	-11.3664
▁निचली	-11.3666
▁महि	-11.3667
प्रे	-11.3668
▁मुंडा	-11.367
मिस	-11.367
▁दिलचस्पी	-11.367
▁मैथिली	-11.367
▁रॉय	-11.3672
▁पूर्णत	-11.3674
▁हंगरी	-11.3675
▁शिविर	-11.3676
▁वोल्ट	-11.3678
टिल	-11.3678
▁तीर	-11.3679
▁मुद्रण	-11.3679
▁ध्येय	-11.3679
▁फ़र्रूख़ाबाद	-11.3681
▁हिस्	-11.3681
▁लेनिन	-11.3682
मोन	-11.3683
▁आदित्य	-11.3683
▁रहीम	-11.3683
▁जिन्होने	-11.3684
▁गोला	-11.3685
बंदी	-11.3685
▁साइबेरिया	-11.3687
▁दर्जन	-11.3689
▁हज़ारों	-11.3689
कर्षण	-11.3692
▁सालाना	-11.3694
▁1913	-11.3695
ंटा	-11.3697
च्छा	-11.3698
रिट	-11.3699
▁पितृ	-11.3699
,500	-11.37
▁माइ	-11.3703
ंभ	-11.3704
▁स्पर्धा	-11.3705
ट्र	-11.371
▁एसी	-11.3712
िब	-11.3717
.3	-11.3718
▁हेक्टेयर	-11.3718
▁यजुर्वेद	-11.3723
▁साइड	-11.3726
▁तत्पश्चात	-11.3727
ाज़	-11.373
▁सुविधाएँ	-11.3733
ाप	-11.3733
▁शुक्रवार	-11.3734
ोई	-11.3736
▁आगम	-11.374
▁पहुंचाने	-11.3741
▁जरा	-11.3742
▁we	-11.3742
ाज	-11.3743
ैक्स	-11.3749
बाग	-11.3751
▁स्टाफ	-11.3753
▁केंद्रों	-11.3754
िं	-11.3754
▁पहनने	-11.3755
ck	-11.3756
▁क़रीब	-11.3758
ba	-11.3758
▁समलैंगिक	-11.3758
▁हिस्सेदारी	-11.3759
▁ठंड	-11.3759
▁समाजों	-11.3761
ाग	-11.3761
▁रेन	-11.3761
▁रहेंगे	-11.3769
▁मोरक्को	-11.3771
▁चैतन्य	-11.3771
▁लड़ाकू	-11.3771
▁ताइवान	-11.3772
▁नारियल	-11.3772
▁भगवती	-11.3772
Xg	-11.3773
▁85°27′	-11.3774
▁हरित	-11.3774
▁विक्रय	-11.3776
▁एवम	-11.3779
ay	-11.3783
▁आपदा	-11.3784
▁ढांचा	-11.3784
▁आभास	-11.3785
▁चादर	-11.3787
port	-11.379
ऑन	-11.3791
▁सकेगा	-11.3792
▁color	-11.3793
▁मूलत	-11.3793
▁तेरह	-11.3795
▁गुड़	-11.3795
▁लीबिया	-11.3796
▁सराहना	-11.3797
▁दीमापुर	-11.3797
ग्राही	-11.3798
▁सिद्धार्थ	-11.38
▁प्रसव	-11.38
▁लोह	-11.3803
▁कलम	-11.3804
▁रनवे	-11.3804
ie	-11.3805
▁पिघल	-11.3808
▁अभिलेखों	-11.3809
▁टर्मिनस	-11.381
▁रवांडा	-11.3811
▁दामोदर	-11.3811
▁फ़ैल	-11.3812
▁परिपक्व	-11.3814
▁रोटी	-11.3816
▁मेजबान	-11.3818
▁कोचीन	-11.3818
▁सजाया	-11.3819
▁कुरु	-11.3819
▁परिणत	-11.3819
स्टि	-11.382
▁टेल	-11.3822
िको	-11.3822
▁वादा	-11.3823
▁मध्यकाल	-11.3824
▁अवधी	-11.3824
▁मनाते	-11.3824
▁संस्कारों	-11.3825
दश	-11.3826
्टा	-11.3828
▁बीत	-11.3828
▁टकराव	-11.383
यार	-11.3834
बीज	-11.3834
▁ग्रीष्म	-11.3836
ोनी	-11.3837
▁गेंदबाजी	-11.3838
▁द्वितीयक	-11.3839
वस्तु	-11.3845
▁रियासतों	-11.3846
▁खुर	-11.3848
याल	-11.3849
▁अधिकांशतः	-11.3849
▁सुनवाई	-11.3851
इंग	-11.3851
▁जायेंगे	-11.3853
ल्य	-11.3854
▁गू	-11.3857
▁गेंदबाज	-11.3861
nd	-11.3862
▁La	-11.3863
▁गिटार	-11.3864
▁मोती	-11.3864
पद्धति	-11.3866
▁पांड्य	-11.3867
▁सबको	-11.3868
▁साय	-11.387
▁दस्तावेजों	-11.3873
रोह	-11.3875
▁मस्त	-11.3876
▁हेराल्ड	-11.3877
▁संगमरमर	-11.3877
line	-11.3879
▁जवान	-11.3884
▁डोर	-11.3889
▁निरन्तर	-11.389
त्स	-11.3891
▁बढ़े	-11.3894
Xp	-11.3898
▁राउंड	-11.3899
▁मेगा	-11.3902
▁आकस्मिक	-11.3904
▁फेफड़ों	-11.3904
▁सिक्कों	-11.3904
▁थाईलैंड	-11.3904
▁सावधानी	-11.3906
सैट	-11.3907
▁रखें	-11.3909
▁अलगाव	-11.391
▁पारिस्थितिक	-11.3912
▁लता	-11.3914
▁सीमाएं	-11.3914
▁गोदावरी	-11.3917
▁पंप	-11.3917
▁किनारों	-11.3917
▁शंख	-11.3918
▁गर्भावस्था	-11.3918
▁गृहयुद्ध	-11.3918
▁किताबों	-11.3918
▁जनित	-11.392
▁गुजरती	-11.392
▁शिर	-11.3922
▁सूट	-11.3922
▁घेरा	-11.3923
▁राजकोट	-11.3923
सूर	-11.3924
▁ट्रेड	-11.3928
▁ठंडी	-11.3932
▁1901	-11.3934
▁फायर	-11.3936
▁न्यायाधीशों	-11.3937
दायक	-11.3944
▁सच्चे	-11.3944
▁मात	-11.3946
मीमांसा	-11.3948
500	-11.3948
▁मेटा	-11.3949
▁जॉर्जिया	-11.395
▁चाह	-11.395
स्तरीय	-11.3951
▁सींग	-11.3952
▁वाम	-11.3954
विहीन	-11.3956
▁सिडनी	-11.3958
▁प्रचारक	-11.396
▁11.	-11.3961
लेखन	-11.3963
▁अपूर्ण	-11.3964
केन	-11.3965
▁प्रशंसक	-11.3965
ाका	-11.3966
’’	-11.3967
▁नें	-11.3968
▁नमी	-11.397
▁क्ला	-11.3971
▁पुनर्गठन	-11.3974
▁अपार	-11.3975
भव	-11.3976
▁न्यून	-11.3978
्रू	-11.3981
▁कार्यालयों	-11.3984
▁गुम्बद	-11.3984
▁संदिग्ध	-11.3984
▁अनुपम	-11.3984
बन्ध	-11.3985
▁समारोहों	-11.3988
पीठ	-11.3991
▁उपलब्धता	-11.3993
▁तेलंगाना	-11.3995
▁पीढ़ियों	-11.3998
▁पुरोहित	-11.3998
परिवर्तन	-11.4002
गड़	-11.4003
ub	-11.4003
▁म्	-11.4005
▁शिशुओं	-11.4008
▁आरोपों	-11.4011
▁अंतर्निहित	-11.4011
▁जनमत	-11.4013
▁मुख्	-11.4013
▁वक्ता	-11.4015
जिया	-11.4016
गाह	-11.4019
▁लिखकर	-11.4021
▁अध्यात्म	-11.4021
▁अष्ट	-11.4022
सोल	-11.4024
▁25.10	-11.4025
▁संकीर्ण	-11.4025
▁गाइड	-11.4025
▁तुलसीदास	-11.4025
नस	-11.4026
▁टैक्सी	-11.4027
िशन	-11.4028
▁Ca	-11.4028
स्ट्रो	-11.4028
स्टिंग	-11.403
सन्	-11.4031
▁Ar	-11.4032
▁मणिपुर	-11.4032
ोज़	-11.4032
▁साधक	-11.4034
▁ज़े	-11.4037
▁कमज़ोर	-11.4038
▁रिपब्लिकन	-11.4039
▁He	-11.404
▁त्र	-11.4041
▁पत्ती	-11.4042
▁छन्द	-11.4042
पात्र	-11.4044
▁कपिल	-11.4044
▁डैविल	-11.4047
▁Con	-11.4048
ैर	-11.4048
▁बृहत्	-11.4051
▁हम्मीर	-11.4052
▁बेंगलुरु	-11.4053
▁मध्ययुगीन	-11.4054
▁पहुँचाने	-11.4054
▁गिने	-11.4056
़ी	-11.4059
▁मुख्यधारा	-11.4062
ॉक	-11.4063
▁प्रौढ़	-11.4065
वर्तन	-11.4065
▁पट्ट	-11.4067
▁1800	-11.4068
डोर	-11.4072
▁मित्रों	-11.4074
स्टे	-11.4074
▁महाद्वीपों	-11.4076
▁एक्ट	-11.4077
▁सर्वे	-11.4077
▁वन्यजीव	-11.4078
▁सैद्धान्तिक	-11.4079
▁जिक्र	-11.408
lu	-11.4081
▁स्पेनी	-11.4084
▁जनवादी	-11.4089
▁ईमेल	-11.4091
राह	-11.4091
▁जाम्बिया	-11.4092
▁खंडन	-11.4099
▁साँस	-11.4105
ान्	-11.4111
▁लद्दाख	-11.4113
▁नौका	-11.4114
▁प्लेयर	-11.4114
▁आद्य	-11.4115
▁बडा	-11.4117
▁बागडोगरा	-11.412
▁कुत्तों	-11.412
▁एलन	-11.4124
▁हटाकर	-11.4126
▁Ch	-11.4127
▁नारद	-11.413
क्ति	-11.413
▁प्रयोक्ता	-11.413
▁स्थ	-11.4132
▁आश्चर्यजनक	-11.4134
▁गोपीनाथ	-11.4134
चर्च	-11.4135
▁प्रो॰	-11.4137
▁विकि	-11.4139
▁नियामक	-11.4141
ंद्र	-11.4144
wa	-11.4144
रौली	-11.4145
▁CO	-11.4146
▁अल्जीरिया	-11.4147
▁इलाक़ा	-11.4147
▁गोलार्ध	-11.4147
केट	-11.4149
▁क्ल	-11.4151
▁राइट	-11.4153
▁हमने	-11.4158
▁जानेवाली	-11.4159
▁85.90	-11.4161
▁आवागमन	-11.4161
▁वर्तनी	-11.4161
▁खाया	-11.4162
▁कृतियाँ	-11.4166
per	-11.4167
▁बंदर	-11.417
▁कुण्ड	-11.4171
सौर	-11.4172
रेख	-11.4172
▁दाग	-11.4173
▁न्यूरो	-11.4174
▁एकजुट	-11.4174
▁लाना	-11.4177
▁रामकृष्ण	-11.4178
ted	-11.4186
▁विधायिका	-11.4188
▁कैफीन	-11.4188
▁मिर्च	-11.4189
▁बीजिंग	-11.4191
▁कंपन	-11.4192
▁विराम	-11.4195
ूत	-11.4196
▁26.	-11.4196
तान	-11.42
▁अपर्याप्त	-11.4202
▁अरस्तू	-11.4202
▁म्यूजिक	-11.4202
▁परेशानी	-11.4203
.5%	-11.4205
▁रैंकिंग	-11.4205
▁दिख	-11.4206
ड्ड	-11.4209
तारा	-11.4214
XK	-11.4215
▁झुक	-11.4215
▁स्थूल	-11.4216
▁पंज	-11.4216
▁बहुमूल्य	-11.4216
▁समझाया	-11.4219
▁किंग्स	-11.4219
▁प्रतिबन्ध	-11.422
▁धूम	-11.4223
िस्	-11.4225
▁फ़ौज	-11.423
▁उल	-11.423
▁जयप्रकाश	-11.4231
▁चलाते	-11.4232
▁कलिल	-11.4232
ज्ञा	-11.4233
▁दिखाते	-11.4235
▁ऐल	-11.4236
▁उपक्रम	-11.4238
▁महीन	-11.4242
▁ज़ि	-11.4243
▁अफगान	-11.4243
▁प्रसंस्करण	-11.4243
स्मिथ	-11.4245
▁रहेगी	-11.425
वस	-11.4253
▁भरतपुर	-11.4253
▁ब्रो	-11.4255
काण्ड	-11.4255
विया	-11.4256
▁ज़माने	-11.4257
▁04	-11.4258
▁एरिक	-11.426
शासन	-11.426
▁रम	-11.426
▁अंडमान	-11.4262
▁दर्शाने	-11.4262
तीन	-11.4264
हद	-11.4265
जेट	-11.4265
ीक	-11.4267
वंशी	-11.4268
▁इसरो	-11.4268
▁आरती	-11.4271
▁आरक्षण	-11.4273
▁डेविस	-11.4273
ैक्ट	-11.4276
हाल	-11.428
▁जार्ज	-11.4281
▁शिक्षकों	-11.4283
▁रूपांतरित	-11.4285
▁उत्प्रेरक	-11.4285
▁उत्सर्जित	-11.4285
▁झारखण्ड	-11.4285
फ़ील्ड	-11.4286
▁पशुपालन	-11.4286
▁बाज	-11.4286
ज़ार	-11.4286
▁स्थानिक	-11.4287
कुर	-11.4288
▁10%	-11.4289
▁समता	-11.4291
▁इंडियाना	-11.4292
मोह	-11.4293
▁वहन	-11.4297
▁आलेख	-11.4297
▁थो	-11.4298
▁चन्द्रशेखर	-11.4299
▁चन्द	-11.43
्के	-11.4302
ish	-11.4302
▁ज्यों	-11.4302
▁विस्थापन	-11.4305
सेक्स	-11.4307
si	-11.4309
▁सपना	-11.4313
,00,000	-11.4313
▁याचिका	-11.4315
वु	-11.4317
मंत्र	-11.4321
ग्न	-11.4325
▁नारंगी	-11.4327
लाइ	-11.4329
ंजर	-11.4329
▁पिच	-11.433
▁व्युत्पत्ति	-11.433
▁गीतकार	-11.4331
हाउस	-11.4331
वार्ड	-11.4332
▁शिरा	-11.4333
रंजन	-11.4335
▁काँच	-11.4335
▁फोर	-11.4337
▁अम	-11.4338
जक	-11.434
आइ	-11.4341
▁कमेटी	-11.4341
▁मार्क्स	-11.4341
▁व्यवसायों	-11.4342
▁पंजीकरण	-11.4342
ाजी	-11.4343
िप	-11.4347
व्रत	-11.4348
▁वू	-11.435
मद	-11.4352
▁तं	-11.4353
लिट	-11.4356
▁धुरी	-11.4356
केल	-11.4357
▁बेस्ट	-11.4359
▁डालकर	-11.4359
▁दुर्	-11.4359
▁चर्म	-11.4361
Xb	-11.4365
पियर	-11.4365
▁प्रतिरोधी	-11.4366
▁छाल	-11.4366
सत	-11.4368
▁अर्जेंटीना	-11.4368
▁खुफिया	-11.4368
▁स्टालिन	-11.4369
▁भीमराव	-11.4369
सित	-11.4372
▁पड़ेगा	-11.4374
▁टेबल	-11.4375
र्श	-11.4375
▁विधियाँ	-11.4379
▁वोल्डेमॉर्ट	-11.4382
▁डायरी	-11.4383
सौ	-11.4385
ेली	-11.4386
▁मित्रता	-11.4387
शाही	-11.4388
Xy	-11.439
काय	-11.4393
▁विक्रेता	-11.4396
▁अभियान्त्रिकी	-11.4396
▁साबुन	-11.4396
▁कनेक्शन	-11.4397
▁विद्रोहियों	-11.4397
▁नेताजी	-11.4398
▁मीमांसा	-11.4407
▁स्वीकार्य	-11.4409
▁एंग्लो	-11.441
▁बहिष्कार	-11.4411
▁फांसी	-11.4411
गोल	-11.4412
▁सूक्त	-11.4414
▁नरेंद्र	-11.4415
▁साठ	-11.4418
▁भगवान्	-11.4419
योग्य	-11.4421
▁थाई	-11.4421
▁सूर	-11.4422
द्व	-11.4423
▁फील्ड	-11.4424
▁बंग	-11.4425
▁दोस्तों	-11.4426
▁विनोद	-11.4427
▁सिन्ध	-11.4427
▁शिलांग	-11.4428
▁वाटर	-11.4429
▁महत्ता	-11.4429
▁सार्थक	-11.4429
तिक	-11.4434
ous	-11.4436
▁स्ट्र	-11.4437
औ	-11.4438
▁पीट	-11.4439
▁आह्वान	-11.4439
▁उत्कीर्ण	-11.4439
▁गर्भवती	-11.444
▁टेली	-11.444
▁कोने	-11.4443
▁जागरूकता	-11.4443
▁इलेक्ट्रिक	-11.4446
▁फ्रे	-11.4446
▁नलिका	-11.4447
त्ती	-11.4451
▁शौक	-11.4451
▁गंभीरता	-11.4452
िएट	-11.4459
▁पीस	-11.4459
रसायन	-11.446
▁संतुष्ट	-11.446
ढा	-11.4462
▁दिखाए	-11.4463
▁नारा	-11.4464
▁निवेशकों	-11.4467
▁अभूतपूर्व	-11.4467
▁चाणक्य	-11.4467
क्वि	-11.4468
टाइम	-11.4471
▁धम	-11.4471
▁सूरी	-11.4472
▁दक्षिणपूर्वी	-11.4473
▁डबल	-11.448
▁डिवाइस	-11.4481
▁मोनोरेल	-11.4481
▁समर्पण	-11.4482
▁61	-11.4486
▁लांच	-11.4487
▁उपनिवेशों	-11.4487
तृ	-11.449
▁सफर	-11.4494
▁इल	-11.4495
▁उठता	-11.4495
▁हड़ताल	-11.4495
▁तैल	-11.4496
चालित	-11.4497
MS	-11.4505
▁रचनाकार	-11.4507
XM	-11.4508
सॉ	-11.4508
▁सामंजस्य	-11.4509
▁फेफड़े	-11.4509
▁प्रेरक	-11.451
der	-11.451
▁1909	-11.4512
▁संयम	-11.4513
ser	-11.4514
XJ	-11.4518
?"	-11.4518
▁पटल	-11.4519
न्दा	-11.4519
▁सिकन्दर	-11.4519
ack	-11.4522
निंग	-11.4524
▁विभव	-11.4525
▁गुलाबी	-11.4527
▁विशेषाधिकार	-11.4529
ाला	-11.4531
▁होज़े	-11.4531
Xx	-11.4531
▁अंगूर	-11.4531
निष्ठ	-11.4533
▁मंदी	-11.4534
no	-11.4536
▁गोरखा	-11.4537
▁एहसास	-11.4538
▁स्क्वायर	-11.4538
▁मियामी	-11.4538
▁वाक्यांश	-11.4539
▁भुवनेश्वर	-11.454
▁आपातकाल	-11.454
▁रियो	-11.454
▁अपूर्व	-11.454
्की	-11.4541
7°13′	-11.4543
▁मल्टी	-11.4545
▁पुकारा	-11.4549
▁बुरे	-11.4549
2%	-11.455
▁पिनांग	-11.4553
▁मोर्चा	-11.4556
▁मानद	-11.4557
▁राइफल्स	-11.4558
▁कर्तव्यों	-11.456
▁मज	-11.456
▁होंगी	-11.4562
▁सातवें	-11.4563
▁भटक	-11.4563
▁दही	-11.4565
▁पैतृक	-11.4566
▁इजराइल	-11.4566
frac	-11.4566
▁बीजों	-11.4567
▁रिक्त	-11.4568
▁ओल्ड	-11.4569
▁समीकरणों	-11.4569
▁दर्रे	-11.457
▁अयोग्य	-11.4572
▁स्वराज	-11.4573
पालन	-11.4575
रियर	-11.4575
▁लाये	-11.4577
प्रदेश	-11.4577
▁अरुण	-11.4579
ore	-11.458
▁वृत्ति	-11.458
▁दरअसल	-11.4581
▁हड्डियों	-11.4581
▁बिशप	-11.4581
▁वाल्मीकि	-11.4582
▁ट्रक	-11.4585
▁सॉ	-11.4591
▁मंगली	-11.4592
मति	-11.4593
▁पनप	-11.4594
du	-11.4595
▁79°30′	-11.4595
▁तान	-11.4595
▁पीपल	-11.4596
ide	-11.4596
▁त्रिपुरा	-11.4597
▁सेक्स	-11.4598
ैंड	-11.4599
▁रचनाकाल	-11.4602
▁मौके	-11.4602
▁गंधक	-11.4604
▁चिकित्सकों	-11.4605
▁औजार	-11.4606
▁सामंत	-11.4607
▁कारखानों	-11.4609
▁छावनी	-11.4609
▁अनावश्यक	-11.4609
▁पूरब	-11.4612
मात्र	-11.4614
▁Sa	-11.4619
▁ताम्र	-11.4619
▁दरों	-11.4621
▁बुंदेलखंड	-11.4623
▁इलाक़ों	-11.4624
▁इरादा	-11.4624
▁अवशिष्ट	-11.4624
▁संग्रहित	-11.4625
▁दिखती	-11.4626
▁जटिलता	-11.4628
तियों	-11.4631
▁चैत्र	-11.4632
▁ढोल	-11.4636
▁लिखीं	-11.4637
▁अहिल्या	-11.4638
▁रवाना	-11.4639
▁हदीस	-11.4639
▁डीसी	-11.4641
नबर्ग	-11.4643
▁मानवों	-11.465
▁अस्थिर	-11.465
▁तंजानिया	-11.4652
▁मनमोहन	-11.4654
जिल	-11.4655
▁निष्	-11.4657
▁राजपूतों	-11.4658
▁मिलना	-11.4658
▁नाच	-11.4659
▁एडी	-11.4661
▁सलाम	-11.4662
▁त्व	-11.4663
ाये	-11.4663
पस	-11.4664
▁अफ़्ग़ानिस्तान	-11.4667
▁पुजारी	-11.4667
▁ज़ूमा	-11.4668
▁घाना	-11.4669
▁बुद्धिमान	-11.467
▁मुह	-11.4671
-12	-11.4672
न्ति	-11.4672
▁आव	-11.4673
जातीय	-11.4674
समाज	-11.4676
▁67	-11.4676
▁गुरुकुल	-11.4677
▁जीनोम	-11.4678
▁बस्तियों	-11.4681
गृहीत	-11.4681
▁एफ़	-11.4682
▁but	-11.4682
▁पल्लव	-11.4683
▁फ्रेम	-11.4685
्रे	-11.4686
}}}	-11.4687
पुट	-11.4693
▁आश्वासन	-11.4696
वानी	-11.4696
▁हिल्स	-11.4696
▁विंग	-11.4699
▁जादूगर	-11.47
▁संप्रभु	-11.4701
कोण	-11.4702
दोष	-11.4703
▁साँप	-11.4703
-7	-11.4705
▁खण्डों	-11.4705
▁लार	-11.4705
▁जड़ें	-11.4709
▁फलत	-11.471
▁y	-11.4712
▁जर	-11.4715
▁भित्ति	-11.4716
कहीं	-11.4717
ेबल	-11.4719
▁सर्दी	-11.4719
आदि	-11.472
खो	-11.4721
au	-11.4722
▁कड़ा	-11.4724
▁यूरेनियम	-11.4725
▁घोड़ा	-11.4725
विले	-11.4725
▁कथाएँ	-11.4726
फॉर्म	-11.4731
Xz	-11.4733
Xt	-11.4735
टेशन	-11.4737
पत्ति	-11.4739
▁पारा	-11.4739
▁बीजापुर	-11.4739
▁घनिष्ठ	-11.474
▁गॉ	-11.4741
▁वादी	-11.4741
▁नमः	-11.4741
िष्	-11.4742
▁पंक्तियों	-11.4742
संघ	-11.4746
गुन	-11.4747
▁भागने	-11.4749
▁सिद्धि	-11.475
▁सम्पादक	-11.4752
▁ठंडे	-11.4753
काउंट	-11.4753
▁जिंदगी	-11.4754
-15	-11.4756
चू	-11.4757
स्रोत	-11.4759
ंडे	-11.476
▁क्रियाएँ	-11.4761
▁प्रतिक्रियाओं	-11.4762
9%	-11.4762
▁its	-11.4763
Xc	-11.4764
▁छेड़	-11.4765
▁लैंस	-11.4767
झी	-11.4767
दाद	-11.477
▁औषध	-11.477
▁जानना	-11.4771
▁बट	-11.4772
▁125	-11.4775
▁12.	-11.4775
भाषिक	-11.4777
▁अर्थशास्त्री	-11.4777
ैंट	-11.4778
मेन्ट	-11.4778
त्ति	-11.4778
do	-11.4781
▁मिलाने	-11.4782
▁गोप	-11.4783
िर्	-11.4785
▁शैवाल	-11.4792
▁चाड	-11.4794
▁नन्द	-11.4795
▁गारंटी	-11.4797
▁काँग्रेस	-11.4797
▁युवावस्था	-11.4798
▁It	-11.4799
▁बिंदुओं	-11.4801
▁जुड़वां	-11.4802
▁59	-11.4802
▁झेल	-11.481
▁श्रद्धांजलि	-11.4812
▁ऑस्टिन	-11.4813
▁लड़कों	-11.4813
▁भरोसा	-11.4813
सत्य	-11.4815
▁79	-11.4815
▁पहुँचती	-11.4816
▁एर	-11.4818
▁नैशनल	-11.4827
▁कर्ज	-11.4829
▁घाटियों	-11.4829
▁फैलाव	-11.4829
▁आलम	-11.4832
▁सहकारी	-11.4833
▁कुर्	-11.4833
▁गुरुत्व	-11.4834
▁प्रतिस्थापन	-11.4835
रथ	-11.4843
▁अररिया	-11.4843
▁पार्टियों	-11.4843
▁तोप	-11.4843
▁पढाई	-11.4843
तुल	-11.4844
ड्रो	-11.4846
स्टार	-11.4847
ंतर	-11.4847
▁निक्षेप	-11.4848
ँच	-11.4849
▁संतोष	-11.4852
रेशन	-11.4856
▁लिनक्स	-11.4856
पल्ल	-11.4856
▁एंव	-11.4857
ight	-11.4857
▁अग्रवाल	-11.4862
▁एलिस	-11.4863
▁180	-11.4863
▁धु	-11.4868
ho	-11.487
▁20%	-11.487
▁निरूपित	-11.4871
▁सांख्यिकीय	-11.4874
XH	-11.4875
फ़्ट	-11.4875
▁ब्राउज़र	-11.4878
थल	-11.4879
साई	-11.4882
▁no	-11.4883
▁मुंशी	-11.4888
▁कैम	-11.489
▁एनी	-11.4891
▁राख	-11.4894
▁बढ़ाकर	-11.4896
▁पह	-11.4899
िफ़	-11.4899
▁अनुमोदन	-11.49
▁कविताएँ	-11.4902
ोत्सव	-11.4903
ब्बा	-11.4903
▁उड़िया	-11.4905
▁विमर्श	-11.4913
स्टन	-11.4913
▁कार्यो	-11.4914
▁द्योतक	-11.4915
▁पत्तों	-11.4916
▁छिपा	-11.4917
कान	-11.4919
▁जता	-11.4921
▁सूखी	-11.4922
▁डांस	-11.4923
न्याय	-11.4928
पुरम	-11.4928
▁देनी	-11.493
▁अंदरूनी	-11.493
▁गुरुद्वारा	-11.4931
▁निर्मल	-11.4932
▁वु	-11.4932
गाम	-11.4934
▁गेम्स	-11.4935
▁दोहरी	-11.4936
▁एन्ड्रॉयड	-11.494
ow	-11.4943
▁संतों	-11.4944
▁ताजिकिस्तान	-11.4945
▁उठाकर	-11.4945
ff	-11.4946
यस	-11.495
▁मंगलौर	-11.4951
ख्य	-11.4951
▁आं	-11.4954
▁बँगला	-11.4959
▁बोतल	-11.4961
▁व्यर्थ	-11.4962
▁सजावट	-11.4962
▁शायर	-11.4965
ल्म	-11.4972
-18	-11.4972
▁झु	-11.4974
▁डिज़्नी	-11.4974
▁कोल्हापुर	-11.4974
पाक	-11.4974
▁जीववैज्ञानिक	-11.4976
han	-11.4976
जनित	-11.4984
▁सोर्स	-11.4985
▁कडप	-11.4986
▁पाइप	-11.4986
▁यंग	-11.4986
▁पूर्वानुमान	-11.4989
▁वर्चस्व	-11.4989
▁क्रांतिकारियों	-11.499
▁संवेग	-11.4991
▁रोहित	-11.4991
फ्ल	-11.4991
▁मीना	-11.4994
भाई	-11.4996
▁नायिका	-11.4999
▁राइ	-11.5
▁पतले	-11.5008
▁आरम्भिक	-11.5009
▁चांद	-11.501
दर्शी	-11.5011
MI	-11.5011
भावना	-11.5011
फ़ेयर	-11.5012
ोरी	-11.5014
लय	-11.5015
ँट	-11.5016
ख्	-11.5017
▁उतने	-11.5019
▁चित्रकारी	-11.502
▁कर्मों	-11.5023
आम	-11.5025
▁खत	-11.5025
▁सील	-11.5028
▁दीं	-11.503
▁लोड	-11.503
▁ज़ा	-11.5031
ोमा	-11.5034
▁पदार्थो	-11.5034
▁नियन्त्रण	-11.5034
▁असंतोष	-11.5034
ten	-11.5034
▁पैकेज	-11.5034
▁प्रायोजित	-11.5034
▁यूक्रेन	-11.5035
▁विवश	-11.5037
▁रिज	-11.5039
माइन	-11.5042
gu	-11.5043
▁रबर	-11.5048
▁87.02	-11.5049
▁दुग्ध	-11.5049
▁पाणिनि	-11.5049
▁अपर	-11.5049
▁बाधित	-11.5049
▁ख़ाँ	-11.505
▁टेलीग्राफ	-11.5051
▁चलाई	-11.5052
ंगर	-11.5052
▁डेढ़	-11.5053
▁घूमते	-11.5054
▁ह्यू	-11.5055
▁इन्हे	-11.5057
▁छल	-11.5058
▁se	-11.5059
नेत्र	-11.506
▁गार्ड	-11.5061
दाता	-11.5062
XT	-11.5062
▁स्वीडिश	-11.5064
ुरी	-11.5065
▁संबन्ध	-11.5066
वाहन	-11.5067
▁संवर्धन	-11.5067
▁आसवन	-11.5069
लौ	-11.5069
▁कटाई	-11.507
▁राष्ट्रवाद	-11.5071
ाणु	-11.5071
▁विकारों	-11.5072
▁दूरस्थ	-11.5075
▁घात	-11.5078
मिक्स	-11.5079
▁फाइबर	-11.508
▁फलक	-11.5081
▁विशालकाय	-11.5081
▁1880	-11.5083
वय	-11.5086
▁पैक	-11.5086
▁अम्	-11.5088
The	-11.5095
XS	-11.5095
▁गायिका	-11.5097
▁मुल	-11.5098
:15	-11.51
संख्या	-11.5103
लॉ	-11.5108
▁आयुर्विज्ञान	-11.5109
▁कठिनाइयों	-11.5109
▁अमिताभ	-11.5109
▁सहानुभूति	-11.511
कोल	-11.5111
्स्ट	-11.5112
▁मंडप	-11.5113
माइ	-11.5113
कुट	-11.5115
▁en	-11.5116
▁खोजा	-11.5117
चो	-11.5118
फेन	-11.5119
▁शेक्सपियर	-11.5124
▁सल्फेट	-11.5124
▁युगांडा	-11.5124
▁तकरीबन	-11.5124
▁पालिका	-11.5125
▁सचिवालय	-11.5125
▁यक्ष	-11.5127
▁बुन	-11.5127
▁अनशन	-11.5128
नेर	-11.5129
स्लिप	-11.5129
▁डेक	-11.513
▁इज़	-11.5131
कालिक	-11.5131
▁दशम	-11.5133
▁अंटार्कटिक	-11.5134
2000	-11.5136
▁विराट	-11.5139
▁शक्तियाँ	-11.5139
▁अथ	-11.5139
▁टोक्यो	-11.514
▁आभूषण	-11.5141
▁अद्वैत	-11.5142
उड	-11.5143
▁प्रमुखता	-11.5144
▁वाइ	-11.5146
्पा	-11.5148
सीमा	-11.5149
त्ते	-11.5149
▁जोड़ती	-11.5149
av	-11.515
भद्र	-11.5151
▁धारक	-11.5151
▁लावा	-11.5153
▁विचारकों	-11.5153
ण्य	-11.5154
▁इंजेक्शन	-11.5154
▁तिवारी	-11.5155
न्थ	-11.5156
▁ब्रदर्स	-11.5156
ki	-11.5156
ain	-11.5157
जुलती	-11.5157
▁शोथ	-11.5158
▁प्रतिबिंबित	-11.5158
ग्रन्थ	-11.5161
▁क्लासिक	-11.5166
▁प्ल	-11.5167
▁गिरि	-11.5168
▁घना	-11.5168
▁स्टीफन	-11.5169
▁बिल्डिंग	-11.5171
▁प्रयोजनों	-11.5172
▁कठोरता	-11.5173
विचार	-11.5176
▁पहुंची	-11.5177
▁दक्षिणपूर्व	-11.5177
▁गला	-11.5178
▁’	-11.5178
लान	-11.5179
▁ऐं	-11.5184
▁मराठों	-11.5185
▁कंट्रोल	-11.5185
▁अरुणाचल	-11.5185
▁चोर	-11.5185
▁अंटार्कटिका	-11.5188
▁विरोधियों	-11.5188
▁मिलाया	-11.519
हरे	-11.5191
▁संपदा	-11.5192
मरी	-11.5193
▁वादक	-11.5195
▁चेर	-11.5196
▁अप्र	-11.5196
▁एंट	-11.52
माण	-11.5201
▁गर्व	-11.5204
▁स्कूली	-11.5211
▁जोन्स	-11.5213
▁हेम	-11.5213
▁फेलु	-11.5214
▁प्रतिस्पर्धी	-11.5215
ह्	-11.5218
▁नॉर्वे	-11.5219
गया	-11.5222
▁तिर	-11.5225
यि	-11.5226
▁गिरती	-11.5228
▁टिन	-11.523
▁जनसँख्या	-11.523
▁मॉरीशस	-11.523
ुओं	-11.523
▁करी	-11.5232
▁कक्षाओं	-11.5232
▁वानूआतू	-11.5234
▁सलीम	-11.5234
▁पुष्ट	-11.5236
▁लेबर	-11.5239
ैं	-11.5239
▁स्तंभों	-11.524
▁लेक	-11.5244
▁ब्	-11.5245
▁ताड़	-11.5245
▁सब्जी	-11.5246
▁बरसात	-11.525
▁निभाते	-11.5251
▁इंजनों	-11.5257
▁प्रतिफल	-11.5257
ब्रि	-11.5257
▁फोर्ड	-11.5258
▁यमन	-11.526
▁बिजनेस	-11.5261
▁लेफ्टिनेंट	-11.5261
▁मीठे	-11.5261
▁गिरी	-11.5262
▁विश्वव्यापी	-11.5265
▁350	-11.5266
▁मारी	-11.5267
▁तम	-11.5271
▁उग	-11.5274
श्म	-11.5275
▁गाजीपुर	-11.5276
▁तदनुसार	-11.5276
▁भूकम्प	-11.5277
▁अपनाई	-11.5278
▁सभापति	-11.5278
प्राप्त	-11.5278
▁बहा	-11.5279
ैट	-11.5279
ेदार	-11.5283
▁अनुभवी	-11.5285
ari	-11.5291
▁पसन्द	-11.5292
▁तरंगदैर्घ्य	-11.5292
▁झरने	-11.5292
▁केदारनाथ	-11.5292
▁पटियाला	-11.5294
▁बरतन	-11.5297
XW	-11.5297
हरण	-11.5297
▁डालर	-11.5299
तन्त्र	-11.5301
▁आर्यों	-11.5301
▁शीश	-11.5302
आउट	-11.5303
ुअल	-11.5303
ice	-11.5305
▁एंटीबायोटिक	-11.5307
ब्रो	-11.5311
▁परतों	-11.5311
▁समझाने	-11.5312
▁क्ष	-11.5312
▁80%	-11.5316
▁टाइ	-11.5318
ुए	-11.5318
ढ़ी	-11.5319
प्य	-11.5319
इम	-11.532
पोषण	-11.532
▁खिला	-11.5321
वट	-11.5321
▁युवराज	-11.5322
▁होल्कर	-11.5323
▁साम्यवाद	-11.5326
हाट	-11.5326
▁पहचानने	-11.5327
▁उपनिषद्	-11.5327
▁कंद	-11.533
ंदी	-11.533
▁पेशे	-11.5334
▁चेन	-11.5337
▁पाइ	-11.5337
▁अन्ततः	-11.534
हिम	-11.534
▁160	-11.5343
डेंट	-11.5343
▁फर्श	-11.5345
▁मचा	-11.535
▁राष्ट्रीयता	-11.5353
▁मेगावाट	-11.5353
▁चलाए	-11.5354
▁अम्लों	-11.5354
बिट	-11.5362
ber	-11.5363
जन्य	-11.5368
▁मुर	-11.5368
ेक्स	-11.5368
▁पुनर्जागरण	-11.5369
▁खे	-11.5369
गड	-11.5369
▁उड़ा	-11.5369
▁ट्रा	-11.537
शीर्ष	-11.537
XG	-11.5373
▁वासुदेव	-11.5374
▁निर्भरता	-11.5375
हेल	-11.5378
ee	-11.538
▁चैनलों	-11.5383
▁मय	-11.5383
Xf	-11.5385
8,000	-11.5385
▁मॉडलों	-11.5386
प्रणाली	-11.5387
्मय	-11.5389
▁निकास	-11.5391
▁मुर्ग	-11.5393
▁आर्द्रता	-11.5393
▁सर्जन	-11.5396
▁वैट	-11.5396
▁जीने	-11.5397
▁चतुर	-11.5398
शेर	-11.5399
▁नमूनों	-11.54
▁दरवाजा	-11.54
मंदिर	-11.54
केश	-11.5404
ख़ा	-11.5406
▁सभ्यताओं	-11.5407
▁जोड़ों	-11.5411
घट	-11.5411
▁सितारों	-11.5411
कं	-11.5413
▁बोस्टन	-11.5417
ुरा	-11.5418
▁टोपी	-11.5419
▁काण्ड	-11.542
साय	-11.542
क्ख	-11.5421
hy	-11.5422
लाम	-11.5423
▁संवेदना	-11.5425
पीए	-11.5426
▁other	-11.5427
▁भीष्म	-11.5428
▁फू	-11.543
▁प्राइवेट	-11.5431
▁सस्ते	-11.5433
हों	-11.5433
▁क्रा	-11.5434
▁शेयरों	-11.5435
▁रेड्डी	-11.5437
बेर	-11.5438
ep	-11.5438
▁हक	-11.5438
▁तुल्य	-11.5441
▁दीपक	-11.5442
▁धड़	-11.5443
ल्ले	-11.5444
▁उभरी	-11.5444
▁मनोहर	-11.5444
▁शाप	-11.5445
▁सम्मुख	-11.5447
▁पोलिश	-11.5449
300	-11.5453
XP	-11.5454
चिन	-11.5456
▁क्लिक	-11.5457
▁ताजा	-11.5459
▁असमानता	-11.5459
▁भ्रष्ट	-11.5461
ng	-11.5462
▁वामन	-11.5463
ेम	-11.5467
▁कामों	-11.5468
मीर	-11.5468
▁Be	-11.5471
पाट	-11.5473
▁नागरी	-11.5473
▁तना	-11.5474
ावती	-11.5474
▁चैन	-11.5475
▁मनी	-11.5477
▁निज़ाम	-11.5477
5%	-11.5477
▁मापदंड	-11.5478
▁बिलबोर्ड	-11.5478
▁जलाशय	-11.5479
ार्ड	-11.5479
▁आपत्ति	-11.5482
▁मेक	-11.5483
स्थित	-11.5487
▁झूठ	-11.5488
▁प्रतियां	-11.5488
पॉ	-11.5488
निन	-11.5492
▁गेहूं	-11.5493
▁पतंजलि	-11.5493
▁फाँसी	-11.5493
▁रिज़र्व	-11.5493
2°	-11.5495
वैदिक	-11.5495
▁निकालकर	-11.5497
▁ईथर	-11.55
XN	-11.5504
▁लेट	-11.5505
▁1870	-11.5507
▁कार्यान्वित	-11.5509
▁खलनायक	-11.5509
▁समायोजित	-11.5509
▁ग्रास	-11.5509
फिर	-11.5511
▁फास्ट	-11.5512
्नो	-11.5512
▁1890	-11.5513
▁मूल्यवान	-11.5513
▁per	-11.5515
▁विशेषत	-11.5515
डम	-11.5516
▁दाने	-11.5522
▁माइक	-11.5522
▁रियल	-11.5523
▁मुलायम	-11.5524
▁कंक्रीट	-11.5525
▁दरार	-11.5528
-11	-11.553
▁कंप	-11.553
▁प्रयोगात्मक	-11.553
▁प्रवृत्तियों	-11.5532
▁कैर	-11.5533
▁हब	-11.5536
वर्स	-11.5536
str	-11.5537
▁आदिवासियों	-11.5538
प्रयोग	-11.5538
▁परमार	-11.5539
▁Ba	-11.554
-16	-11.554
नूर	-11.5543
▁comp	-11.5543
डों	-11.5544
▁असफलता	-11.5545
▁श्रवण	-11.5545
▁वसूल	-11.5546
▁किरणें	-11.5547
▁सीरीज़	-11.5547
ेंड	-11.5551
▁सीखा	-11.5552
100	-11.5554
▁सूत	-11.5556
▁सिकुड़	-11.5557
ौन	-11.5561
▁भद्र	-11.5561
▁गतिशीलता	-11.5562
▁दर्रा	-11.5563
▁ग्रो	-11.5563
▁दर्जे	-11.5565
▁जन्मदिन	-11.5566
▁पूर्वक	-11.5566
▁नाटो	-11.5567
▁पनडुब्बी	-11.5572
▁आन	-11.5572
वर्थ	-11.5572
▁मादक	-11.5572
िन्	-11.5572
▁चिकित्सकीय	-11.5573
▁जमशेदपुर	-11.5573
▁अभिषेक	-11.5574
▁तंतु	-11.5577
▁चुरा	-11.5583
धातु	-11.5583
्ट्स	-11.5583
▁40%	-11.5584
ुवा	-11.5585
▁चतुर्भुज	-11.5588
▁पॉली	-11.5588
▁उठे	-11.5588
वाय	-11.5589
▁सुविधाजनक	-11.5589
प्राचीन	-11.5592
▁पहुँची	-11.5599
▁For	-11.56
मक	-11.5603
▁आर्द्र	-11.5604
▁सूबेदार	-11.5605
▁कार्यात्मक	-11.5607
भक्त	-11.5607
▁प्रावधानों	-11.5612
tic	-11.5613
▁किशन	-11.5614
▁ग्रेड	-11.5615
▁रोमानिया	-11.5615
▁जड़ों	-11.5615
▁टिम	-11.5616
ध्द	-11.5618
▁अधिकता	-11.5619
▁चंद्रगुप्त	-11.562
▁खातों	-11.562
▁कुमारी	-11.5623
▁बाँ	-11.5623
▁प्रखंड	-11.5624
ेट्स	-11.5627
दिश	-11.5628
ाट	-11.5631
ुल्लाह	-11.5634
▁कैटरीना	-11.5635
▁चोपड़ा	-11.5635
▁द्रौपदी	-11.5635
▁सलेमपुर	-11.5635
▁हड़प्पा	-11.5635
▁व्हिस्की	-11.5635
▁श्रीनिवास	-11.5637
मंगल	-11.5638
▁पित्त	-11.5639
▁प्राचीनकाल	-11.5641
▁27.	-11.5643
▁सूचनाओं	-11.5643
▁उपनिवेशवाद	-11.5644
▁रेसिंग	-11.5644
▁पहुँचते	-11.5646
▁07	-11.5646
क़ा	-11.5649
▁ड्रा	-11.5653
▁आवश्यकतानुसार	-11.5654
माने	-11.5655
▁प्रतिलिपि	-11.5656
▁मोटा	-11.5656
ाइटिस	-11.5657
ियान	-11.5659
ासुर	-11.566
▁सांता	-11.5662
यर्स	-11.5664
ोलॉजी	-11.5667
▁आपातकालीन	-11.5668
▁Li	-11.567
▁बहुल	-11.5673
▁संग्रहण	-11.5673
▁1902	-11.5674
▁बाएं	-11.5676
केंद्र	-11.5679
▁सैक	-11.5682
▁न्यूज़ीलैंड	-11.5683
▁नामीबिया	-11.5683
▁छिड़	-11.5684
▁गाए	-11.5684
▁वेदांत	-11.569
▁अपराधियों	-11.5694
▁मौसमी	-11.5697
ावा	-11.5698
▁परिलक्षित	-11.5699
▁बपतिस्मा	-11.5699
▁मिलेगा	-11.5699
▁दिखायी	-11.57
▁मूक	-11.5701
▁छुपा	-11.5701
7,000	-11.5702
▁समांतर	-11.5704
शहर	-11.5704
▁प्रज्ञा	-11.5706
:1	-11.5708
▁शारदा	-11.5715
▁बारीक	-11.5715
▁गर्भगृह	-11.5715
▁पहुँचकर	-11.5717
चिह्न	-11.5719
▁कबीले	-11.5721
▁their	-11.5723
▁कैल्सियम	-11.5731
़ा	-11.5731
▁प्रिंट	-11.5732
▁कम्पनियों	-11.5733
▁पीर	-11.5738
सीर	-11.574
▁राइफल	-11.574
▁कृत्य	-11.5742
एड	-11.5745
▁नियंत्रक	-11.5747
▁वैचारिक	-11.5747
▁प्रवक्ता	-11.5747
ूद	-11.575
▁पीएच	-11.575
प्ल	-11.5751
▁अनुवादक	-11.5752
▁मीरा	-11.5752
ial	-11.5753
▁क्षारीय	-11.5753
▁नाकाम	-11.5758
▁प्रशासक	-11.5759
▁शाखाएं	-11.5761
▁दुर्योधन	-11.5763
▁तटस्थ	-11.5764
व्यक्ति	-11.5764
▁जरूरतों	-11.5765
▁आलोचनात्मक	-11.5765
Xd	-11.5769
रक्त	-11.5771
ट्ठ	-11.5772
▁Co	-11.5774
▁चुनी	-11.5777
▁ब्रि	-11.5777
▁फिलिप्स	-11.5778
▁बलात्कार	-11.5779
▁पत्तियाँ	-11.5779
हीनता	-11.5779
▁विलेय	-11.578
▁06	-11.5781
रुद्दीन	-11.5783
▁लैस	-11.5788
▁साईं	-11.5788
▁करनेवाला	-11.5788
▁सूखा	-11.5789
▁क्वीन	-11.5791
▁जीवंत	-11.5792
घन	-11.5793
▁लाभकारी	-11.5794
स्र	-11.5795
▁आन्तरिक	-11.5795
▁जबरदस्त	-11.5795
▁स्वेच्छा	-11.5798
गोपाल	-11.5801
मला	-11.5804
्ह	-11.5804
fe	-11.5805
गोन	-11.5806
न्ज	-11.5807
▁अधो	-11.5808
▁अंतत	-11.5809
gen	-11.581
▁ट्यूमर	-11.5811
XL	-11.5812
▁संविदा	-11.5812
▁नर्तक	-11.5813
▁प्रौद्योगिकियों	-11.5813
क्या	-11.5815
▁द्	-11.5818
▁पत्	-11.5819
रियल	-11.5821
▁जप	-11.5821
गिल	-11.5822
▁दाम	-11.5825
▁मानो	-11.5826
▁बैडमिंटन	-11.5827
▁हंडिया	-11.5828
ग्रो	-11.5828
ल्हा	-11.5828
XD	-11.5829
▁फोर्स	-11.5829
दै	-11.583
▁पतला	-11.583
▁1904	-11.583
▁अधिकाधिक	-11.5832
▁कैम्प	-11.5833
▁सामान्यतया	-11.5836
आधुनिक	-11.5836
्दो	-11.5836
▁समझता	-11.5837
स्त्र	-11.5837
र्फ	-11.5844
▁अत्याधिक	-11.5844
▁डाइऑक्साइड	-11.5844
▁130	-11.5845
▁पाय	-11.5846
▁सुलझाने	-11.5847
▁बैग	-11.5848
▁बक	-11.5849
्ति	-11.585
▁वास्	-11.5853
ुं	-11.5853
▁हटाया	-11.5857
ईस्ट	-11.5858
▁जोड़ते	-11.5858
गिन	-11.5864
िकरण	-11.5864
▁मूर्त	-11.5864
थम	-11.5866
▁युगों	-11.5869
्लर	-11.587
▁हेलो	-11.5872
▁93	-11.5875
▁घृणा	-11.5876
▁धूमकेतु	-11.5876
▁दीपावली	-11.5877
▁दलितों	-11.5877
▁बिखर	-11.5879
लियो	-11.588
हिन्द	-11.5881
▁वैधानिक	-11.5881
पिन	-11.5883
रोध	-11.5885
▁बहाल	-11.5886
यदि	-11.5887
▁पेशियों	-11.5891
▁वडोदरा	-11.5892
▁युवक	-11.5893
▁न्यूट्रॉन	-11.5893
क़ी	-11.5894
▁शेल	-11.5894
▁कोणीय	-11.5894
▁बेड़े	-11.5896
▁औषधीय	-11.5897
सत्ता	-11.5899
ूंगा	-11.5901
ढ़ा	-11.5902
संहिता	-11.5902
▁लौकिक	-11.5902
▁प्रतिरोधक	-11.5903
▁निकासी	-11.5903
नियन	-11.5904
▁निकायों	-11.5906
▁पहुँचता	-11.5906
▁तिरुचिरापल्ली	-11.5911
▁नेट	-11.5912
▁नाइजर	-11.5912
ear	-11.5917
Xa	-11.5918
▁चौथाई	-11.5919
प्पी	-11.5921
▁अध्यायों	-11.5921
bu	-11.5924
उन	-11.5926
ens	-11.5928
▁बैठकर	-11.5928
▁टर	-11.5931
▁महलों	-11.5932
▁महाकवि	-11.5933
फ़ि	-11.5933
▁भारतेन्दु	-11.5933
य्य	-11.5933
▁तैर	-11.5934
▁दश	-11.5934
▁कॉमिक	-11.5939
बहादुर	-11.5939
बड़ी	-11.5939
▁खोजों	-11.594
▁आत्मसमर्पण	-11.5942
▁इच्छुक	-11.5942
▁हार्वर्ड	-11.5942
▁न्यायपालिका	-11.5942
▁प्रजातियाँ	-11.5944
▁प्रक्रम	-11.5944
शिक	-11.5945
▁पृष्ठों	-11.5948
▁शॉट	-11.5953
▁डाउन	-11.5953
▁आदत	-11.5954
टम	-11.5958
चीपुर	-11.5959
िंग्स	-11.5964
ेटिक	-11.5965
▁मिनी	-11.5966
▁विषयक	-11.5967
इंट	-11.5967
▁लटका	-11.5967
▁एयरलाइन्स	-11.5969
षि	-11.597
▁अंडों	-11.597
▁ट्रिपल	-11.5972
▁वास्तुशिल्प	-11.5974
▁संचय	-11.598
▁सौदे	-11.598
▁किस्मों	-11.5983
▁प्रक्षेप	-11.5985
नंदन	-11.5987
▁01	-11.5987
▁दरिया	-11.5988
ण्डी	-11.5988
▁सेकेंड	-11.5991
▁एमआईटी	-11.5992
▁बिताया	-11.5993
▁फ़र	-11.5996
▁Te	-11.5997
▁संन्यास	-11.5997
▁एप	-11.5998
निर्देश	-11.6001
▁कोशिकाएँ	-11.6004
▁महेश	-11.6004
Xu	-11.6005
▁sh	-11.6005
ंदर	-11.6006
मोहन	-11.6007
▁बैटमैन	-11.6007
▁साढ़े	-11.6007
▁घर्षण	-11.6007
वायर	-11.6007
▁पराक्रम	-11.6008
▁दिखते	-11.6011
▁वायुयान	-11.6011
▁उभार	-11.6011
▁टॉ	-11.6012
▁जागरण	-11.6012
▁आगाम	-11.6012
▁शेरशाह	-11.6012
▁अन्याय	-11.6014
▁उपभाषा	-11.6014
▁सस्ता	-11.6015
▁प्लस	-11.6016
▁सीडी	-11.6019
▁ट्व	-11.6019
▁अब्दुल्ला	-11.6022
▁परेड	-11.6023
pl	-11.6024
▁पिरामिड	-11.6024
▁वैलेंटाइन	-11.6024
▁हुमायूँ	-11.6024
ब्रॉमली	-11.6024
▁कमांड	-11.6025
▁साइबर	-11.6025
▁चौड़े	-11.6026
पर्व	-11.6026
▁पडा	-11.603
the	-11.6031
▁all	-11.6033
▁13.	-11.6035
▁वैभव	-11.6038
र्र	-11.6039
▁सुधारने	-11.6047
बैक	-11.6048
प्राप्ति	-11.6049
▁टोल	-11.605
न्हा	-11.605
▁देगी	-11.605
▁बाह	-11.605
▁लुईस	-11.6053
▁एकादशी	-11.6054
बह	-11.6055
▁प्रतीकात्मक	-11.6056
▁एलिजाबेथ	-11.6057
▁कुरुक्षेत्र	-11.6057
▁क्रिकेटर	-11.6059
▁आदर्शों	-11.606
▁व्यू	-11.606
▁सुनाया	-11.6063
▁विशेषतः	-11.6067
▁स्वरों	-11.6067
ेटिव	-11.6068
▁un	-11.6068
▁संभालने	-11.6068
▁अनेकाने	-11.607
▁सांद्रता	-11.6071
▁कांट	-11.6072
तापूर्वक	-11.6073
▁अभिनीत	-11.6073
▁पिण्ड	-11.6075
▁वैली	-11.6077
▁पिक्चर्स	-11.6078
▁बेल्ट	-11.608
शंस	-11.6082
ंघ	-11.6082
▁110	-11.6083
▁जिर	-11.6086
▁रॉस	-11.6086
लेक	-11.6087
स्टेट	-11.6089
▁अनन्य	-11.6089
ट्रे	-11.6093
▁घटनाएँ	-11.6094
एफसी	-11.6096
Xs	-11.6101
ting	-11.6101
▁सीसा	-11.6101
▁अचल	-11.6103
वाड	-11.6103
ग्री	-11.6104
▁Ro	-11.6104
▁डू	-11.6107
▁बद्रीनाथ	-11.6107
▁तख्त	-11.6108
कली	-11.6108
▁दरगाह	-11.6109
व्स	-11.611
▁सिल	-11.611
दौ	-11.6114
▁नाभि	-11.6114
पोर	-11.6115
▁इम	-11.6117
▁प्रोसेसर	-11.6118
▁नायर	-11.6119
्युल	-11.612
फूल	-11.6122
▁शक्तियां	-11.6123
नेल	-11.6124
▁न्यास	-11.6133
▁क़ा	-11.6139
्नी	-11.6139
▁मार्क्सवादी	-11.6139
▁गर्भाधान	-11.614
▁वक़्त	-11.614
▁प्रबन्धन	-11.614
▁चट्टग्राम	-11.614
▁श्रुति	-11.6141
▁$1	-11.6144
धू	-11.6145
▁2.0	-11.6147
▁चेतन	-11.6148
बुक	-11.6149
▁कमजोरी	-11.615
▁प्रतीक्षा	-11.6157
यहाँ	-11.6158
sc	-11.6159
▁धीमा	-11.6159
▁प्लांट	-11.6159
ऊँ	-11.6161
▁अब्द	-11.6162
▁पौत्र	-11.6164
▁90%	-11.6165
▁दबाने	-11.6165
▁हिंदुस्तान	-11.6165
▁निकालना	-11.6169
▁पंत	-11.6169
Xh	-11.6169
वाक्य	-11.6171
▁अमल	-11.6172
▁म्यूज़िक	-11.6174
कां	-11.6174
▁दार्शनिकों	-11.6175
▁कबाब	-11.6176
▁कोला	-11.6178
गमन	-11.6182
▁प्लेस	-11.6182
इं	-11.6184
ावर	-11.6184
संयुक्त	-11.6185
▁नकली	-11.6186
▁मुझ	-11.6188
▁कैप्टन	-11.6191
▁गायत्री	-11.6191
▁आर्गन	-11.6191
ंती	-11.6192
फ्री	-11.6192
▁सव	-11.6193
▁जगा	-11.6194
▁1896	-11.6195
▁खिलजी	-11.6195
▁वेस्टमिंस्टर	-11.6196
▁गोल्फ	-11.6196
▁निकोलस	-11.6196
▁रोलिंग	-11.6198
▁फ्रा	-11.6199
▁फैलता	-11.6199
युग्म	-11.6203
चै	-11.6203
▁हेर	-11.6203
▁हिन्दुस्तानी	-11.6204
▁91	-11.6205
▁लिपियों	-11.6207
▁इज़राइल	-11.6207
▁अवधारणाओं	-11.6209
लेज	-11.621
▁धा	-11.6211
▁हज	-11.6215
क्षित	-11.6217
▁वां	-11.6221
▁एस्पिरिन	-11.6224
▁फ्रेडरिक	-11.6224
▁व्यवसायिक	-11.6225
▁ढका	-11.6225
▁संयोजित	-11.6225
▁लपेट	-11.6226
▁साक्षी	-11.6227
▁As	-11.6227
▁गेज	-11.6227
▁जुड़ने	-11.6228
▁Ja	-11.6228
बृ	-11.6231
▁96	-11.6235
▁उच्चतर	-11.6235
▁नेटवर्किंग	-11.6238
▁कपाल	-11.6238
ख़ान	-11.6242
▁रिकॉर्ड्स	-11.6243
▁उठी	-11.6245
▁सैर	-11.6246
श्व	-11.6249
रिज	-11.625
रीन	-11.625
▁मिट	-11.6253
विच	-11.6255
▁मजदूरी	-11.6255
▁बकर	-11.6257
त्रिवेंद्रम	-11.6258
▁वरीयता	-11.6258
डियो	-11.6258
▁हरिवंश	-11.6259
▁लक्षित	-11.626
red	-11.6261
▁मानती	-11.6261
▁सद्	-11.6262
▁प्रपात	-11.6262
▁उर्वरक	-11.6263
▁कामना	-11.6264
▁रूपये	-11.6266
▁आठवें	-11.6267
▁सिवाय	-11.6269
▁भुजा	-11.6269
▁चलाता	-11.6271
क्रा	-11.6273
AT	-11.6274
▁ज़रिये	-11.6275
▁जर्सी	-11.6275
▁सांभर	-11.6275
▁अभिनव	-11.6276
मिति	-11.6277
▁तनु	-11.6277
▁ओवेन	-11.6279
हेड	-11.6279
▁निराशा	-11.628
▁संवेदनशीलता	-11.628
▁खासी	-11.628
बिंदु	-11.6291
▁ठुकरा	-11.6292
▁वस्त्रों	-11.6292
▁हिब्रू	-11.6292
▁प्लेटफार्म	-11.6292
▁बोइंग	-11.6292
वर्तमान	-11.6293
▁पट्टिका	-11.6297
▁प्रशा	-11.6302
▁सिरों	-11.6303
▁लॉक	-11.6304
▁एलि	-11.6305
▁घनी	-11.6305
ध्	-11.6306
▁समस्थानिक	-11.6309
▁इंगलैंड	-11.6309
▁अंपायर	-11.6309
▁सौभाग्य	-11.6309
▁रमापुर	-11.6311
▁रीढ़	-11.6311
▁ह्	-11.6312
▁चौकी	-11.6312
▁कर्मियों	-11.6312
▁कस्	-11.6313
ांकन	-11.6314
▁चित	-11.6314
तांत	-11.6315
▁दोषों	-11.6317
▁योर	-11.6318
▁मायन	-11.6321
▁उठाते	-11.6323
▁दिनांक	-11.6324
▁सिग्नल	-11.6326
▁टोरंटो	-11.6326
▁विरोधाभास	-11.6326
▁हाथियों	-11.6326
कभार	-11.6327
रिचमंड	-11.6327
▁भस्म	-11.6329
Xk	-11.6331
▁उमा	-11.6331
▁अण्ड	-11.6331
▁मग	-11.6334
▁शान्त	-11.6337
▁संन्यासी	-11.6337
▁Mar	-11.6339
▁बांस	-11.6341
स्थगित	-11.6343
▁दशरथ	-11.6343
▁नास्तिक	-11.6343
▁जत	-11.6343
लाभ	-11.6343
▁अग्रिम	-11.6343
▁फॉक्स	-11.6344
▁140	-11.6345
वाचक	-11.6345
▁साइटों	-11.6346
aw	-11.6348
ामी	-11.6348
▁गोबर	-11.6349
▁प्रोटो	-11.6352
▁प्रशस्त	-11.6353
▁छोड	-11.6354
्विन	-11.6357
▁पश्	-11.6358
Xr	-11.6359
▁गड़िया	-11.6361
गें	-11.6372
▁हिला	-11.6372
▁तेजपुर	-11.6373
▁प्	-11.6374
▁अताई	-11.6374
▁सिंड्रोम	-11.6377
▁पोखर	-11.6381
▁रोकना	-11.6381
ea	-11.6384
निधि	-11.6384
रोन	-11.6385
able	-11.6386
▁प्रतिबद्धता	-11.6386
▁मोन	-11.6386
भूषण	-11.6388
▁अभिनेताओं	-11.6389
mer	-11.6389
▁do	-11.639
▁एंजाइम	-11.6396
▁जस्ता	-11.6396
तपुर	-11.6396
▁अनि	-11.6399
▁टेप	-11.6402
▁मास्को	-11.6403
▁पीतल	-11.6403
वर्मन	-11.6406
▁राजेंद्र	-11.6408
बॉल	-11.6409
तुरन्त	-11.641
▁निमोनिया	-11.6411
XA	-11.6412
▁चेहरा	-11.6412
▁फीफा	-11.6412
▁ब्रह्मपुत्र	-11.6412
▁दिखाता	-11.6413
tan	-11.6413
▁नोकिया	-11.6414
▁तस्वीरें	-11.6415
▁साध	-11.6416
▁ढाई	-11.6416
▁रमन	-11.6417
हिल	-11.6418
▁जूते	-11.642
▁निराश	-11.6424
रज	-11.6426
फुल	-11.6427
rat	-11.6428
▁यमकेश्वर	-11.6428
टें	-11.6429
▁उस्मानी	-11.643
▁गाड़ियों	-11.6431
▁दाह	-11.6431
▁चुनने	-11.6433
▁पॉवर	-11.6434
▁नग्न	-11.6439
▁यूनिकोड	-11.644
▁पोषित	-11.6441
घो	-11.6443
▁कल्पित	-11.6445
▁फ़्र	-11.6445
▁पेंगुइन	-11.6445
▁फ़सल	-11.6447
ावत	-11.6447
▁बटन	-11.6448
▁चालुक्य	-11.6448
रक्षा	-11.6449
इयाँ	-11.6449
प्रभाव	-11.645
▁सी॰	-11.6451
▁डल	-11.6451
▁बसंत	-11.6454
▁करनेवाली	-11.6456
ाधि	-11.6456
▁हवाओं	-11.6459
▁ब्राह्मी	-11.6459
▁प्रयोगशालाओं	-11.6463
▁अम्बेडकर	-11.6463
▁गुंबद	-11.6463
▁चिन्तन	-11.6463
ds	-11.6465
▁धनात्मक	-11.6467
▁गुदा	-11.6468
जुल	-11.6468
▁स्वच्छता	-11.6469
जुलता	-11.6469
काश	-11.647
▁अनुकूलित	-11.647
▁महानतम	-11.6472
▁मुस्लिमों	-11.6474
फै	-11.6474
▁कीमतों	-11.6475
▁1903	-11.6479
▁बावड़ी	-11.648
डियम	-11.648
▁मुहाने	-11.648
▁सलमान	-11.6482
▁विजयवाड़ा	-11.6482
वेग	-11.6482
▁मतानुसार	-11.6483
▁निशाना	-11.6484
▁वीज़ा	-11.6484
▁ग़लत	-11.6485
▁गृहस्थ	-11.6486
▁फोर्ट	-11.6487
गुर	-11.6488
सस	-11.6489
XR	-11.6489
अं	-11.6491
▁नॉर्मन	-11.6492
▁लटक	-11.6492
▁नंदी	-11.6493
▁पंद्रह	-11.6493
अमेरिकी	-11.6494
▁कार्गो	-11.6495
▁परौली	-11.6495
जनों	-11.6496
ीश	-11.6496
ाधीन	-11.6497
▁परिप्रेक्ष्य	-11.6497
▁पेंशन	-11.6497
▁षड्यंत्र	-11.6497
त्याग	-11.6498
एससी	-11.6499
आय	-11.65
▁अमान्य	-11.65
वृक्ष	-11.65
▁काष्ठ	-11.6502
▁कम्	-11.6504
ou	-11.6505
▁राजनय	-11.6507
▁डायना	-11.651
फोर	-11.6511
▁कौरव	-11.6513
शोर	-11.6513
▁पांचवें	-11.6514
▁फायदे	-11.6515
▁लेबनान	-11.6515
org	-11.6515
▁रिलायंस	-11.6515
▁जनतांत्रिक	-11.6515
▁वैयक्तिक	-11.6515
▁सर्पिल	-11.6517
▁बतलाया	-11.6517
▁शुद्धता	-11.6526
▁सोमालिया	-11.6532
▁निःशुल्क	-11.6532
▁आपात	-11.6534
आर्थिक	-11.6536
▁ग्रेटर	-11.6537
भोज	-11.6538
▁वाइन	-11.6542
▁सहर	-11.6542
▁मदर	-11.6544
▁कलिंग	-11.6544
▁लोकपाल	-11.6545
न्ह	-11.6545
दित	-11.6546
ron	-11.6546
▁मांगा	-11.6547
▁झाड़	-11.6548
जाति	-11.6549
▁कारागार	-11.655
▁वृत्तचित्र	-11.655
▁दोस्ती	-11.6551
▁अध्	-11.6552
▁स्पेंसर	-11.6552
▁काशीपुर	-11.6552
▁खि	-11.6552
▁बर्बर	-11.6554
▁मॉडलिंग	-11.6555
ंगो	-11.6556
▁वृहत	-11.6557
हॉर्न	-11.6561
तरह	-11.6563
लोर	-11.6563
▁25.5	-11.6565
▁छंदों	-11.6566
▁बास्केटबॉल	-11.6567
▁ग्रीनहाउस	-11.6567
▁विद्यापीठ	-11.6567
▁विरल	-11.6568
▁डेरा	-11.6568
▁Pa	-11.657
▁मार्केट	-11.6571
▁रामचन्द्र	-11.6572
▁सड़कें	-11.6575
शास्त्री	-11.6577
बीर	-11.6584
▁पन	-11.6584
▁अप्रत्याशित	-11.6584
▁ग्लेशियर	-11.6584
▁तटों	-11.6584
हास	-11.6584
▁उद्धरण	-11.6584
▁अल्फा	-11.6586
▁वेगास	-11.6586
▁ट्रि	-11.6588
कल्याण	-11.6589
▁अधीनस्थ	-11.6589
▁साओ	-11.6593
▁3-	-11.6594
▁अम्लीय	-11.6595
केन्द्र	-11.6597
धारित	-11.66
लता	-11.66
▁मालिकों	-11.66
▁माइग्रेन	-11.6602
▁लगाता	-11.6602
▁म्यू	-11.6603
▁आंत्र	-11.6604
▁आयरन	-11.6605
मण्ड	-11.6605
अम	-11.6606
बानी	-11.6611
▁नियोजित	-11.6615
▁चूने	-11.6617
▁गोर	-11.6618
राई	-11.6618
▁मैट	-11.6619
▁जॉर्डन	-11.6619
▁मालदीव	-11.6619
टीवी	-11.6619
▁उदात्त	-11.662
▁डेमोक्रेटिक	-11.662
▁रोमांस	-11.6621
▁पेशावर	-11.6621
ेश्	-11.6622
▁वज़न	-11.6622
Xl	-11.6624
▁विपक्षी	-11.6625
▁ईसाइयों	-11.6627
▁बॉ	-11.6628
िफ	-11.6628
देवताओं	-11.663
▁मौन	-11.663
▁घुमा	-11.663
▁कामकाज	-11.6632
ष्म	-11.6633
▁टीमें	-11.6635
िष्ठ	-11.6637
▁पुरस्कृत	-11.6637
▁चौबीस	-11.6637
▁जहा	-11.6639
▁प्रदत्त	-11.6641
सिद्धांत	-11.6643
ठे	-11.6644
ath	-11.6645
▁बहि	-11.6649
▁शाहजहाँ	-11.6649
▁हंसा	-11.6653
▁निभाता	-11.6654
▁गोबिंद	-11.6654
▁निष्पक्ष	-11.6655
▁फिनलैंड	-11.6655
▁उपसर्ग	-11.6656
Xe	-11.6656
▁मिसाल	-11.6657
▁खरीदारी	-11.666
▁स्क्रिप्ट	-11.6661
इर	-11.6663
▁गैल	-11.6664
▁लेडी	-11.6664
▁चीफ	-11.6665
भ्य	-11.6666
▁रामा	-11.6667
क्रे	-11.6668
▁भाषाएं	-11.667
▁संप्रदायों	-11.6671
▁चलना	-11.6672
▁मनोरोग	-11.6672
▁चारो	-11.6672
ip	-11.6675
वर्धक	-11.6676
लेम	-11.6676
▁गोपनीयता	-11.6678
▁कंठ	-11.668
▁थकान	-11.6681
▁Com	-11.6683
फेस	-11.6683
टेड	-11.6683
यता	-11.6686
▁खानों	-11.6686
pa	-11.6689
▁उठाए	-11.669
▁पीपुल्स	-11.669
▁अवतरण	-11.669
▁आनुवंशिकी	-11.669
▁मिलीमीटर	-11.6692
▁लाइनों	-11.6692
साइ	-11.6694
▁1897	-11.6694
वाइ	-11.6695
दृष्टि	-11.6696
छोटी	-11.6698
▁ऑस्ट्र	-11.6701
उर	-11.6703
▁सामी	-11.6703
र्जी	-11.6705
बैंक	-11.6706
▁संकुचन	-11.6707
▁इंटरफेस	-11.6707
वाने	-11.6708
▁जूल	-11.6708
▁आमाशय	-11.671
▁अश्वेत	-11.671
जुलते	-11.6711
▁सतही	-11.6712
रवा	-11.6712
▁23.	-11.6714
▁फॉ	-11.6717
▁महज	-11.6721
क्लर्क	-11.6723
▁बंधक	-11.6725
विम्बलडन	-11.6725
ब्ल	-11.6725
▁अमोनिया	-11.6725
▁छद्म	-11.6726
▁बगैर	-11.6726
▁सिल्वर	-11.6727
▁वेदान्त	-11.6727
con	-11.6732
लोग	-11.6732
▁टूल	-11.6733
▁पी॰	-11.6735
▁हीरोज़	-11.6736
▁NA	-11.6737
▁मौजूदगी	-11.6739
▁ब्रोक	-11.6739
pur	-11.6739
▁समितियों	-11.6741
▁कॉर्पोरेशन	-11.6743
चिस	-11.6743
▁ब्रायन	-11.6744
▁प्रवृति	-11.6745
▁वेल	-11.6746
▁फिल्मो	-11.6747
ट्यू	-11.6747
▁नकार	-11.6748
▁आचार्यों	-11.6751
▁महासागरों	-11.6752
▁92	-11.6752
▁क्रू	-11.6753
▁पॉलि	-11.6755
▁ध्	-11.6756
निम	-11.6757
एसए	-11.6758
▁28.	-11.676
▁तस्मानिया	-11.676
▁अंजाम	-11.6761
▁who	-11.6761
▁वक्तव्य	-11.6764
▁कमला	-11.6767
रह	-11.677
▁हफ्ते	-11.6775
▁तम्बाकू	-11.6778
▁फेडरेशन	-11.6778
▁कार्बोहाइड्रेट	-11.6778
▁आसीन	-11.6778
▁त्	-11.6779
मुनि	-11.6779
▁लहरों	-11.678
▁खन्ना	-11.678
▁मिड	-11.6789
▁देशभक्ति	-11.679
▁बचाया	-11.679
▁ऋणात्मक	-11.679
▁घुम	-11.6792
प्रेस	-11.6792
िंद	-11.6792
hu	-11.6792
अमेरिका	-11.6793
▁सक	-11.6793
▁अठारह	-11.6794
▁रिले	-11.6794
नंद	-11.6794
▁टेलिविज़न	-11.6796
▁आर्कटिक	-11.6797
▁been	-11.6798
▁स्मारकों	-11.68
▁महेन्द्र	-11.68
▁सैल	-11.68
▁घिरे	-11.6801
▁छत्रपति	-11.6802
▁वक्ष	-11.6803
फाइ	-11.6804
gr	-11.6805
▁रहस्यमय	-11.6806
▁उत्तेजना	-11.6807
▁प्रात	-11.6809
▁असं	-11.6812
▁रिपब्लिक	-11.6812
सिर	-11.6813
▁फूलपुर	-11.6813
▁वैवाहिक	-11.6814
▁ऑस्कर	-11.6814
▁747	-11.6815
कौ	-11.6815
▁खिलाडी	-11.6816
▁पड़ाव	-11.6818
▁आइस	-11.6818
राशि	-11.6818
ree	-11.6819
▁मांसाहारी	-11.682
▁108	-11.682
▁गांधीजी	-11.6822
▁फॉर्म	-11.6824
▁दर्शनशास्त्र	-11.6824
ार्ट	-11.6825
▁रूक	-11.6829
▁पदवी	-11.6831
वृद्धि	-11.6831
▁उरुग्वे	-11.6832
▁पाठ्यक्रमों	-11.6833
▁पहलवान	-11.6834
पट्ट	-11.6834
▁उगाया	-11.6834
ध्या	-11.6835
▁क्लान	-11.6837
▁विल्	-11.6837
वरा	-11.6838
प्ति	-11.6839
समा	-11.6842
त्सु	-11.6842
▁पहचाने	-11.6843
क्षेप	-11.6843
▁सांप	-11.6843
ंजा	-11.6843
वर्	-11.6844
च्य	-11.6844
ेरे	-11.6845
सब	-11.6846
▁तले	-11.6848
▁किट	-11.6848
▁समरूप	-11.6848
▁फाइब	-11.6849
आइल	-11.6849
▁काठमांडू	-11.685
▁दूतावास	-11.685
▁माउंटबेटन	-11.685
▁घोड़ों	-11.685
▁ढ़ा	-11.685
▁मस्जिदों	-11.6851
▁क्रिश्चियन	-11.6855
▁मानदंड	-11.6856
▁कर्क	-11.686
▁टोनी	-11.686
▁यथार्थवादी	-11.686
▁पीसी	-11.6862
▁वल्लभ	-11.6863
▁छड़	-11.6864
way	-11.6864
िले	-11.6867
दूत	-11.6868
▁भयभीत	-11.6868
▁निवेदन	-11.6868
▁हेमचंद्र	-11.6868
ions	-11.6868
▁धकेल	-11.6868
▁छात्रवृत्ति	-11.6869
▁कच्चा	-11.6869
▁द्वारका	-11.6869
▁only	-11.687
▁क्लार्क	-11.6872
मंत्री	-11.6874
▁वैद्य	-11.6877
कृति	-11.6877
पत्नी	-11.6879
▁कड़े	-11.6879
▁दसवें	-11.688
▁पूछ	-11.688
बाय	-11.6881
न्तु	-11.6881
▁एरो	-11.6882
▁पृ	-11.6885
▁पूँजी	-11.6889
▁पिछड़े	-11.6889
▁Br	-11.689
▁पागल	-11.6891
▁स्कैन	-11.6891
▁सेवानिवृत्ति	-11.6891
▁संहार	-11.6892
प्रकार	-11.6894
▁लियोन	-11.6896
ke	-11.6897
विष	-11.6897
▁प्रतिबिंब	-11.6899
Xn	-11.6899
▁ग्रै	-11.69
द्वि	-11.69
ding	-11.6901
▁पुनर्जीवित	-11.6904
▁निभायी	-11.6904
▁वॉल्ट	-11.6906
▁फैलाने	-11.6906
बेकन	-11.6906
शू	-11.6907
थन	-11.6907
ान्तर	-11.6911
ब्रे	-11.6911
वान्	-11.6912
बली	-11.6915
पण	-11.6916
XU	-11.692
▁लड़ी	-11.6921
▁सिगरेट	-11.6922
▁अरविन्द	-11.6922
▁रेलगाड़ी	-11.6922
▁सेंसर	-11.6923
XC	-11.6924
▁रकम	-11.6926
▁सीमाएँ	-11.6926
▁अदृश्य	-11.6926
▁चाहा	-11.6927
▁कार्यक्षमता	-11.6927
▁कॉलेजों	-11.693
▁Na	-11.6931
▁गाते	-11.6931
▁वाल्व	-11.6932
Xo	-11.6934
▁लेनी	-11.6935
▁प्रचारित	-11.6935
स्कोप	-11.6938
▁आइलैंड	-11.6938
▁ओड़िशा	-11.694
▁शेंगेन	-11.694
▁प्रेषित	-11.694
▁उपाध्याय	-11.6941
▁ईंटों	-11.6941
▁sp	-11.6943
▁बल्	-11.6944
▁कमाल	-11.6945
▁चिम	-11.6946
{\	-11.6949
▁गाल	-11.6952
षक	-11.6953
▁फिलिस्तीन	-11.6958
▁निजामुद्दीन	-11.6958
▁अनावरण	-11.6958
▁वारंगल	-11.6958
▁स्टेज	-11.6959
टलैंड	-11.696
▁अनुभाग	-11.6961
200	-11.6963
▁निरोध	-11.6965
▁मंड	-11.6965
▁स्ट्रोक	-11.6965
▁पंचमी	-11.6965
▁घराने	-11.6965
▁बची	-11.6965
र्ल	-11.6967
air	-11.697
▁कूपर	-11.697
▁सम्राटों	-11.6971
डॉ॰	-11.6971
▁पाव	-11.6972
XF	-11.6973
▁खूबसूरती	-11.6974
▁इन्ही	-11.6974
▁प्रकोप	-11.6976
▁प्रलय	-11.6978
हॉ	-11.6979
▁प्रक्षेपित	-11.6983
▁ठहर	-11.6983
▁बढ़ाते	-11.6983
tor	-11.6985
ध्र	-11.6987
तीर्थ	-11.6987
▁रश	-11.6988
▁360	-11.6989
▁बताये	-11.699
▁पंखों	-11.6994
▁आतंरिक	-11.6994
▁मातरम्	-11.6994
▁शिलालेखों	-11.6996
▁शम	-11.6996
बीच	-11.6997
▁जौहर	-11.6997
एर	-11.6998
▁घूमती	-11.6998
योजित	-11.6999
▁पिंडों	-11.7001
▁जं	-11.7005
▁विलास	-11.7008
▁गुजरता	-11.701
▁मदिरा	-11.7013
मेरी	-11.7013
▁अंकन	-11.7014
▁अर्ल	-11.7018
▁रावल	-11.7021
▁अकबरपुर	-11.7024
सामाजिक	-11.7025
जिक	-11.7025
▁dis	-11.7026
▁करुणा	-11.7027
▁टायर	-11.7028
▁न्यु	-11.7029
▁अनुसन्धान	-11.7031
▁तैमूर	-11.7031
लॉग	-11.7032
▁पहनते	-11.7034
▁सस्ती	-11.7035
▁ब्रॉ	-11.7035
▁सम्बन्धों	-11.7035
▁बाहु	-11.7036
▁जुटा	-11.7037
▁सचिन	-11.7041
2.	-11.7043
▁न्यूज	-11.7043
tt	-11.7044
स्म	-11.7045
▁बरस	-11.7045
खन	-11.7048
▁प्रादुर्भाव	-11.7049
▁कार्बोनेट	-11.7049
▁धोखा	-11.705
▁थापना	-11.7051
▁अंगोला	-11.7051
▁बंगला	-11.7053
▁into	-11.7053
▁रचे	-11.7053
▁जुट	-11.7054
▁टूटने	-11.7054
▁पुर्तगालियों	-11.7056
रेंस	-11.7056
▁अब्बास	-11.7058
▁प्रतिष्ठान	-11.7058
खाना	-11.7061
मोद	-11.7063
▁लड	-11.7063
▁प्रतीकों	-11.7063
ov	-11.7064
▁22.	-11.7065
▁अनिल	-11.7066
पोरबंदर	-11.7067
▁क्यूंकि	-11.7067
▁रग्बी	-11.7067
▁आख्यान	-11.7067
▁सप्तम	-11.7068
▁डेबिट	-11.7068
क्षार	-11.7069
्स्क	-11.7069
▁di	-11.707
▁नूर	-11.7071
▁उड़ानों	-11.7072
दं	-11.7073
▁जॉ	-11.7074
▁स्पष्टीकरण	-11.7075
कर्ष	-11.7075
।..	-11.7076
र्दे	-11.7077
▁स्पिन	-11.708
▁पैदावार	-11.7082
▁क्रूज़	-11.7084
bi	-11.7085
▁रनों	-11.7086
▁ऑक्सीकरण	-11.7086
▁more	-11.7086
हिंदी	-11.7086
▁अजीब	-11.7087
ren	-11.7088
▁बतला	-11.7088
▁जस	-11.709
▁1858	-11.709
dr	-11.7093
खों	-11.7093
▁बदलना	-11.7095
▁पक	-11.7098
▁चाँद	-11.7102
▁सिन्धी	-11.7103
▁0.1	-11.7103
▁आवंटित	-11.7104
▁बड़ौदा	-11.7104
▁पूंछ	-11.7104
▁क्षतिपूर्ति	-11.7104
मुख्य	-11.7105
्पर	-11.7108
▁1895	-11.7109
▁कोशों	-11.711
▁जियो	-11.711
▁ओड	-11.7111
▁पावन	-11.7113
▁फ़िरोज़	-11.7115
▁ख़राब	-11.7122
5°	-11.7122
▁स्पैनिश	-11.7122
▁पारदर्शी	-11.7124
▁गन्ना	-11.7126
▁सहस्र	-11.7127
▁यात्राओं	-11.7128
▁कमर	-11.7128
विद्युत	-11.7128
न्या	-11.7129
act	-11.713
▁मुद्राओं	-11.713
▁सूक्ष्मजीव	-11.7131
▁तै	-11.7131
▁बेकार	-11.7131
स्वर	-11.7132
पीड	-11.7133
▁ग़ज़ल	-11.7133
लेखक	-11.7136
▁खादी	-11.7138
▁चिंतित	-11.7141
▁एड्रेस	-11.7141
▁प्रोडक्शन	-11.7141
OS	-11.7142
▁दन्त	-11.7142
▁बाइ	-11.7144
्मे	-11.7144
मनी	-11.7145
▁फार	-11.7148
▁डिस्	-11.7148
हत्या	-11.715
▁मिटा	-11.7151
▁कवरेज	-11.7151
▁जमाव	-11.7153
▁अंशों	-11.7154
▁सुखा	-11.7155
▁उगा	-11.7158
▁कॉम	-11.7159
▁मर्सिडीज	-11.7159
▁सुव्यवस्थित	-11.7159
बदल	-11.7161
▁मीठा	-11.7161
▁स्टोरी	-11.7165
टाउन	-11.7165
फिक	-11.7168
▁फोटोग्राफी	-11.7168
▁पन्न	-11.7176
▁लड़े	-11.7177
▁बौद्धों	-11.7177
▁पपड़ी	-11.7178
फ्रे	-11.7178
ib	-11.7178
▁उन्मुख	-11.7179
▁महंगा	-11.7179
▁उल्	-11.718
▁भुजाओं	-11.7182
▁विनय	-11.7183
रुण	-11.7184
▁आनेवाले	-11.7184
डाइ	-11.7185
▁सल्	-11.7186
▁Th	-11.719
▁हावी	-11.7191
▁संजीव	-11.7194
▁दर्शनों	-11.7195
▁ताँबा	-11.7196
▁परम्पराओं	-11.7196
▁पिशाच	-11.7196
▁मनोरम	-11.7198
बर्न	-11.7198
▁जातीं	-11.7203
▁प्लग	-11.7203
▁दुर्बल	-11.7203
टाइन	-11.7204
▁निवेशक	-11.7205
स्टै	-11.7211
▁सभ्य	-11.7211
▁संकुचित	-11.7215
▁फ़्लेम	-11.7215
▁समन्वित	-11.7215
▁जैक्सन	-11.7216
▁लेखिका	-11.7216
▁ओल	-11.722
▁लड़ते	-11.722
▁पेंटिंग	-11.722
▁आँखें	-11.7221
गाथा	-11.7221
▁पेट्रोल	-11.7222
▁माघ	-11.7223
▁रघु	-11.7224
▁वर्क	-11.7224
▁अक्	-11.7225
▁घुड़सवार	-11.7225
▁पन्ना	-11.7225
▁छठ	-11.7227
▁बढ़ाता	-11.7227
▁गाव	-11.7228
उत्	-11.7228
▁सामयिक	-11.7229
्यता	-11.723
▁अर्पित	-11.723
▁टोर	-11.7232
सीआर	-11.7233
▁बगीचे	-11.7234
▁इसीलिये	-11.7234
▁रानीखेत	-11.7234
▁झुंड	-11.7236
ara	-11.7236
▁कुचल	-11.7237
▁पकड़ा	-11.7237
▁बन्दी	-11.724
▁सीमांत	-11.7241
▁वाक	-11.7243
▁उब	-11.7244
▁आतंकवादियों	-11.7245
▁डब्लू	-11.7248
▁लाते	-11.7249
▁अलंकरण	-11.7252
▁तर्कसंगत	-11.7253
▁उपराष्ट्रपति	-11.7253
▁दृष्टिगोच	-11.7253
समान	-11.7254
विंग	-11.7255
log	-11.7256
तौर	-11.7256
▁क्रोम	-11.7256
▁प्यू	-11.7257
▁पढ़ते	-11.7258
▁महिलाएँ	-11.7261
▁पड़ोस	-11.7261
िष	-11.7262
▁101	-11.7262
▁शाक	-11.7266
▁निपटान	-11.7266
▁कृषक	-11.7267
वचन	-11.7268
▁करनाल	-11.7269
रासायनिक	-11.7269
▁रोमांटिक	-11.7271
▁रिएक्टर	-11.7271
▁ग्राउंड	-11.7271
▁हुसेन	-11.7274
▁कैंप	-11.7275
शियल	-11.7275
▁मंगलवार	-11.7275
▁वश	-11.7276
पेर	-11.7279
संगीत	-11.7281
▁पम्प	-11.7281
▁जरुरी	-11.7281
भो	-11.7285
▁पुट	-11.7286
कश्मीर	-11.7288
दिल्ली	-11.7289
▁गम्भीर	-11.729
▁वॉशिंगटन	-11.729
▁सपने	-11.729
▁मणिपुरी	-11.7291
▁अनुपालन	-11.7291
▁विचरण	-11.7293
▁अशुद्ध	-11.7293
▁उत्पादकता	-11.7295
▁मर्यादा	-11.7295
▁क्रमबद्ध	-11.7295
रोज	-11.7295
मृत	-11.7298
▁ड्रामा	-11.7298
▁दासों	-11.7298
ुलर	-11.7298
आलम	-11.7299
▁गढ़ी	-11.7301
▁लाइबेरिया	-11.7309
▁वल्लभभाई	-11.7309
▁नीम	-11.731
▁श्रृंगार	-11.731
▁मालवीय	-11.7311
▁बाली	-11.7312
▁दोहराया	-11.7313
▁विशद	-11.7313
▁see	-11.7313
▁कृमि	-11.7315
▁प्रतिजैविक	-11.7315
▁इच्छाओं	-11.7316
ame	-11.7317
इंड	-11.7317
▁छाती	-11.7318
="	-11.7319
वाणी	-11.7324
▁धारी	-11.7325
प्रसिद्ध	-11.7327
▁नरसंहार	-11.7327
▁हुबली	-11.7328
▁सामर्थ्य	-11.7329
▁1894	-11.7331
▁पिक	-11.7332
▁सापेक्षता	-11.7334
▁अंड	-11.7336
पुल	-11.7342
▁सितारे	-11.7342
▁फंस	-11.7343
▁लामा	-11.7343
▁मारिया	-11.7343
रक्षक	-11.7344
▁बिल्ली	-11.7344
भ्रम	-11.7345
▁मौलाना	-11.7346
मन्	-11.7347
▁समकोण	-11.7347
▁जीतकर	-11.7349
संत	-11.735
▁मामा	-11.7355
▁शत्रुओं	-11.7357
▁चूक	-11.7357
त्त्व	-11.7357
▁कार्यभार	-11.7358
बाब	-11.7361
▁प्राणि	-11.7363
▁रचनाएं	-11.7363
▁फ़्रांसिसी	-11.7365
▁फ्रैंकफर्ट	-11.7365
▁मैनेजमेंट	-11.7365
▁जमैका	-11.7365
▁एलेक्ट्र	-11.7365
▁टेक्सास	-11.7365
▁ज्वाला	-11.7366
उम	-11.7367
जै	-11.7367
▁फिल्टर	-11.737
▁प्रेक्षण	-11.7371
▁जीर्ण	-11.7373
▁छत्र	-11.7373
▁बालकों	-11.7376
▁राजी	-11.7378
▁pre	-11.7378
क्की	-11.7383
हिया	-11.7383
be	-11.7384
▁अनगिनत	-11.7384
▁डेवलपमेंट	-11.7384
▁वेस्टइंडीज	-11.7384
▁शुभारंभ	-11.7384
▁समुद्रतट	-11.7385
म्बल	-11.7385
▁उपशाखा	-11.7385
▁जोली	-11.7386
बुर	-11.7389
▁प्रजापति	-11.7391
▁विधाओं	-11.7393
▁सीनेट	-11.7393
XE	-11.7395
▁सज़ा	-11.7395
व्यू	-11.7397
ुका	-11.7402
▁स्विट्जरलैंड	-11.7403
बल्तिस्तान	-11.7403
▁अपघटन	-11.7403
▁त्वरण	-11.7403
▁गर्भपात	-11.7404
▁सिवा	-11.7405
▁राजसी	-11.7405
▁पका	-11.7406
▁एना	-11.7408
▁समीक्षक	-11.7409
तब	-11.741
▁खोले	-11.741
▁अन्तः	-11.7412
र्ध	-11.7412
हाइ	-11.7413
ान्तरित	-11.7413
▁कमाने	-11.7413
ाइज़	-11.7418
▁विमानन	-11.7419
पेक्ष	-11.742
▁अन्ध	-11.7421
▁जुलूस	-11.7422
▁हवाला	-11.7424
▁विडियो	-11.7424
्डो	-11.7425
▁चार्टर	-11.7426
▁पाला	-11.7427
▁छप	-11.743
ess	-11.7431
श्लेष	-11.7433
रिच	-11.7433
▁खुलना	-11.7434
कैट	-11.7435
▁1700	-11.7436
▁लैंगिक	-11.7436
XB	-11.7436
▁डब	-11.744
▁चंपा	-11.7441
▁Prince	-11.7441
▁प्राप्	-11.7441
▁कांतिमान	-11.7442
▁सुधा	-11.7444
▁रामनगर	-11.7444
▁पाठशाला	-11.7444
▁कूल	-11.7445
▁1898	-11.7446
▁निर्माणाधीन	-11.7447
▁राष्ट्रभाषा	-11.7448
धरा	-11.7449
▁सेक्टर	-11.7449
सक	-11.745
वेज	-11.7452
िली	-11.7453
▁रोकता	-11.7454
▁सरस	-11.7455
▁टीले	-11.7457
ुड़ी	-11.7457
▁वस्	-11.7459
लियाँ	-11.746
▁फ़्रांसीसी	-11.746
िज़्म	-11.746
▁स्केल	-11.7464
▁नोबल	-11.7464
eg	-11.7468
ीनो	-11.7468
▁लीडर	-11.7471
▁सुखद	-11.7474
▁सन्तान	-11.7475
▁चाक	-11.7476
▁इक्विटी	-11.7479
▁तुम्हें	-11.7479
▁प्रसिद्द	-11.7479
▁कहलाने	-11.7479
ेद	-11.748
▁मीणा	-11.7481
▁प्रमाणों	-11.7482
▁अंगूठी	-11.7487
्कि	-11.7488
▁बंट	-11.749
▁स्विस	-11.7492
▁सक्रियता	-11.7492
डाय	-11.7494
▁3.5	-11.7496
▁रेखाएँ	-11.7496
▁मसाले	-11.7497
▁चित्तौड़	-11.7497
▁असहयोग	-11.7498
▁सिलसिले	-11.7498
▁सेनेगल	-11.7498
▁असुर	-11.7499
▁एप्लिकेशन	-11.7499
▁वैशाली	-11.7499
▁स्टैंड	-11.7501
▁मृदु	-11.7502
▁प्रतिरूपण	-11.7503
▁प्राप्तकर्ता	-11.7504
▁गरीबों	-11.7505
▁नकद	-11.7506
▁बादलों	-11.7507
स्सा	-11.7507
▁Ka	-11.7509
▁ताजिक	-11.751
▁फेल	-11.7512
▁बिन्दुओं	-11.7512
▁उत्तरोत्तर	-11.7515
.6%	-11.7516
▁एसिटिक	-11.7517
▁पैगंबर	-11.7517
▁बढ़ोतरी	-11.7517
▁सेंटीमीटर	-11.7517
▁बेचे	-11.7518
सरदार	-11.7519
qui	-11.7523
जार	-11.7523
▁अवार्ड्स	-11.7523
▁पहाड	-11.7526
वाहक	-11.7527
ज्जा	-11.7528
qua	-11.7528
▁सूख	-11.7534
सुख	-11.7535
मिला	-11.7536
▁प्लूटो	-11.7536
▁जादुई	-11.7536
▁आधुनिकीकरण	-11.7537
▁प्रतिभाशाली	-11.7537
ोनैच	-11.7538
▁1860	-11.7541
▁बिखरे	-11.7541
▁महायान	-11.7541
ob	-11.7545
ुनी	-11.7547
▁फसलें	-11.7548
स्थापित	-11.7548
▁सोनिया	-11.755
ष्य	-11.755
ार्	-11.7551
▁क्रीम	-11.7551
तरी	-11.7552
▁निपुण	-11.7552
▁चिकन	-11.7554
ल्टी	-11.7555
▁number	-11.7556
▁फिलाडेल्फिया	-11.7556
▁सराहा	-11.7556
▁ऑटोमोबाइल	-11.7556
▁This	-11.7556
▁हर्ट्ज	-11.7557
▁दाता	-11.7558
द्रु	-11.7559
▁प्लेटों	-11.7559
्राइड	-11.756
▁over	-11.756
▁खंडवा	-11.7561
▁अक्षम	-11.7562
▁अरा	-11.7562
किंग्स्टन	-11.7563
▁पादपों	-11.7566
▁बलुआ	-11.7566
व्यापी	-11.7567
▁पूर्णांक	-11.757
▁दसवीं	-11.7571
नक	-11.7573
lay	-11.7573
अब	-11.7574
▁ऐल्कोहल	-11.7575
▁चैंपियंस	-11.7575
▁पुंज	-11.7575
▁डिप्लोमा	-11.7575
▁ज़िक्र	-11.7575
▁डिजाइनर	-11.7577
▁फासो	-11.7577
▁अराजकता	-11.7577
▁शूल	-11.7577
▁एरिया	-11.7577
कने	-11.7578
▁मताधिकार	-11.7578
▁तद	-11.7581
▁हाइपर	-11.7583
मपुर	-11.7585
लिम	-11.7585
▁धर्मनिरपेक्ष	-11.7586
विज्ञानी	-11.7589
▁वृ	-11.759
▁कर्कट	-11.7591
्चे	-11.7591
▁नाममात्र	-11.7593
▁रामदेव	-11.7593
▁ढक	-11.7594
▁एवरेस्ट	-11.7594
▁नागार्जुन	-11.7594
▁गुजरने	-11.7595
हड़	-11.7595
▁प्रतियोगी	-11.7597
▁डार्क	-11.7597
▁त्रुटियों	-11.7598
▁पांडवों	-11.7598
▁दीव	-11.7601
▁मिल्क	-11.7602
▁सुनील	-11.7603
वाना	-11.7606
▁सोचने	-11.7607
▁बाएँ	-11.7607
राइड	-11.7609
▁अभय	-11.7611
▁खल	-11.7611
▁हिंदु	-11.7612
▁ट्री	-11.7613
▁नतीजतन	-11.7614
▁स्पेशल	-11.7614
मयी	-11.7614
ord	-11.7616
▁प्रवचन	-11.7616
▁जड़ी	-11.7617
XO	-11.7617
▁पकवान	-11.7618
ॉर्ट	-11.7618
▁बिता	-11.7622
▁out	-11.7626
▁पकड़े	-11.7626
िस्टिक	-11.7627
▁सान	-11.7627
फू	-11.7629
▁साई	-11.763
संस्कृति	-11.7631
▁मिठाई	-11.7633
▁उत्पीड़न	-11.7633
▁स्टैनफोर्ड	-11.7633
▁मिथ्या	-11.7633
▁बेंगलूर	-11.7633
ुड	-11.7633
ूस	-11.7634
▁कारखाना	-11.7634
▁धर्मसूत्र	-11.7635
▁रस्सी	-11.7636
▁वर्जित	-11.7638
▁गुणांक	-11.7638
▁कुक	-11.7639
▁प्रेमिका	-11.7642
▁साम्राज्यवाद	-11.7643
3.	-11.7643
वाडा	-11.7643
▁अक	-11.7643
▁विध	-11.7644
7.5	-11.7645
क्षी	-11.7646
▁ग्र	-11.7648
स्ट्रा	-11.7649
▁4000	-11.765
▁गंज	-11.7652
▁रैखिक	-11.7652
▁तुगलक	-11.7652
▁वार्मिंग	-11.7652
▁कंधे	-11.7653
▁कार्यपालिका	-11.7656
▁कंकाल	-11.766
म्बी	-11.7661
8°	-11.7662
▁भड़क	-11.7663
▁ध्वनियों	-11.7664
▁बिली	-11.7665
ट्रॉन	-11.7667
▁भागीदार	-11.767
▁कतार	-11.7672
▁तंजौर	-11.7672
▁मछलियाँ	-11.7672
▁सिया	-11.7673
स्ले	-11.7675
▁समुद्रतल	-11.7676
नाई	-11.7677
▁फ़ॉर	-11.7677
वर्ट	-11.7677
▁हिज	-11.7681
अर्	-11.7684
फ़िंच	-11.7685
लेक्स	-11.7687
▁एकाधिक	-11.769
▁टुडे	-11.7693
▁महायुद्ध	-11.7694
क्लास	-11.77
▁जमी	-11.7702
▁वर्त्त	-11.7702
▁चिकनी	-11.7703
साम	-11.7705
mar	-11.771
▁अनुमोदित	-11.7711
▁निष्कासित	-11.7711
▁लखीसराय	-11.7711
▁संकोच	-11.7711
▁दिलीप	-11.7711
0°	-11.7712
▁यथार्थवाद	-11.7713
धारण	-11.7717
▁सुधारक	-11.7717
▁नबी	-11.7718
▁निर्देशों	-11.772
▁रणजीत	-11.7722
वर्क	-11.7722
2.1	-11.7723
▁साम्य	-11.7723
▁हीरे	-11.7726
▁असीम	-11.7728
▁खिड़की	-11.773
▁निलंबित	-11.773
▁ओपेरा	-11.7731
▁पराशर	-11.7731
▁दाहिनी	-11.7731
बैटर	-11.7732
वाही	-11.7732
▁लिप	-11.7732
▁न्यायालयों	-11.7734
▁Ad	-11.7735
णों	-11.7736
सुधार	-11.7736
▁इस्	-11.7737
अक्स	-11.7739
▁पीली	-11.7739
▁अंबाला	-11.7739
▁गिरफ्तारी	-11.7741
▁सांरग	-11.7742
▁ज्या	-11.7745
▁रोजर	-11.7745
पाश	-11.7746
▁सच्चा	-11.7747
▁रिक	-11.775
▁विनियमन	-11.775
्स्	-11.7751
▁वैश्य	-11.7751
▁सरकारें	-11.7752
मूल्य	-11.7753
वीन	-11.7753
▁टोगो	-11.7753
▁जाम	-11.7759
▁अंकुर	-11.7761
▁ऐल्	-11.7763
sin	-11.7763
▁करतीं	-11.7764
गों	-11.7766
ाः	-11.7766
▁हजारे	-11.7767
-17	-11.7767
▁डायल	-11.777
▁थ्	-11.777
ऑक्स	-11.777
▁स्तनधारी	-11.777
▁डब्ल्यू॰	-11.7771
▁शू	-11.7771
▁तालिबान	-11.7771
जम	-11.7772
एसटी	-11.7772
▁चौथ	-11.7772
▁बसों	-11.7773
▁बेरोजगारी	-11.7775
▁छवियों	-11.7776
▁जागृत	-11.7776
कुम	-11.7777
्तो	-11.778
▁पड	-11.778
▁आंग्ल	-11.7781
देवता	-11.7781
▁ढलान	-11.7782
इट्स	-11.7782
▁कराए	-11.7783
विवाद	-11.7783
▁दीवारें	-11.7785
रूम	-11.7786
▁अस्थिरता	-11.7786
▁कैथरीन	-11.7789
▁पाटलिपुत्र	-11.7789
▁उछाल	-11.7789
▁कलाकृतियों	-11.779
क्षमता	-11.7791
मेटिक	-11.7793
▁लोहिया	-11.7794
▁मजबूती	-11.7795
श्वर	-11.7795
▁गंगाधर	-11.7795
्लिंगटन	-11.7798
▁होस्ट	-11.7798
▁900	-11.7799
▁गोंड	-11.7802
▁एपि	-11.7802
▁मानसिंह	-11.7805
▁मैग	-11.7806
▁use	-11.7807
▁कठ	-11.7808
▁दयानन्द	-11.7809
▁सुमेर	-11.7813
▁ईद	-11.7813
▁कालान्तर	-11.7814
णु	-11.7815
▁लगाव	-11.7815
▁मम	-11.7816
▁हाजीपुर	-11.7817
▁आरएनए	-11.7818
▁प्रदर्शनों	-11.7819
▁उड़ने	-11.782
▁रूपांतर	-11.7821
▁विचलन	-11.7824
▁गाँठ	-11.7825
▁बहिर्	-11.7826
▁हेक्	-11.7826
▁निर्वात	-11.7829
▁स्की	-11.783
▁धनराशि	-11.783
▁कुलपति	-11.7832
विवाह	-11.7833
िण	-11.7835
mon	-11.7837
▁अस्पतालों	-11.7838
्लिंग	-11.7841
▁जासूस	-11.7841
▁उथल	-11.7842
रेक	-11.7842
▁सूचि	-11.7843
्बी	-11.7843
▁इलेक्ट्रो	-11.7843
▁महेंद्र	-11.7844
▁भूरा	-11.7845
▁महादेवी	-11.7845
▁चिन्ता	-11.7846
▁गी	-11.7847
▁प्राणायाम	-11.7849
▁इरादे	-11.7849
▁तब्दील	-11.7849
▁वेदव्यास	-11.7849
▁साजिश	-11.7849
▁वियना	-11.7849
▁डिंभ	-11.785
मांड	-11.785
▁गरुड़	-11.7852
▁गोकुल	-11.7854
▁चट्टानें	-11.7855
▁एक्सेस	-11.7855
ताप	-11.7856
▁दैत्य	-11.7856
▁बुराई	-11.7859
छे	-11.7861
संबंधी	-11.7862
▁वार्	-11.7863
दह	-11.7863
▁बाग़	-11.7863
।’’	-11.7864
▁बेरी	-11.7866
▁होंने	-11.7868
▁इन्दौर	-11.7868
▁मगरमच्छ	-11.7868
▁शतरंज	-11.7868
▁वार्तालाप	-11.7869
▁गली	-11.7869
▁अमीनो	-11.7869
▁नौसैनिक	-11.7869
▁विधिवत	-11.787
पद्म	-11.787
गौ	-11.7871
▁युक्तियों	-11.7871
▁वज्र	-11.7875
टेर	-11.7876
क्टो	-11.7879
{2}	-11.788
▁नाईट	-11.7882
▁मुकेश	-11.7885
▁उतरने	-11.7885
ral	-11.7887
▁ट्यूनीशिया	-11.7888
▁प्रत्यावर्ती	-11.7888
▁आइसलैण्ड	-11.7889
▁बुधवार	-11.789
▁प्लान	-11.7891
कुण्ड	-11.7893
Xv	-11.7893
▁प्याज	-11.7894
▁शूट	-11.7898
ंन	-11.7898
▁उठाना	-11.7898
▁टीके	-11.79
कारगर	-11.7901
प्टिक	-11.7902
▁क्वार्टर	-11.7902
विट	-11.7903
▁इको	-11.7903
ज्या	-11.7906
▁इंस्टिट्यूट	-11.7908
▁पर्दे	-11.7908
दिर	-11.7909
▁स्मार्ट	-11.7909
▁होगन	-11.7911
द्रि	-11.7912
▁शहद	-11.7915
▁शेन	-11.7916
लोप	-11.7916
▁वाट	-11.7917
▁रेव	-11.7919
▁फ्लोर	-11.7921
▁2,000	-11.7921
क्षि	-11.7922
▁केन्या	-11.7922
पं	-11.7925
▁दुर्भाग्य	-11.7927
▁50,000	-11.7928
▁ज्यामितीय	-11.7928
▁इजरायल	-11.7928
▁नक्शे	-11.7928
▁ऑर्डर	-11.7929
▁ख़िताब	-11.7929
रोम	-11.793
ौरा	-11.7931
▁इंटेल	-11.7932
▁शिंजियांग	-11.7932
▁सचेत	-11.7933
पुंज	-11.7933
▁1885	-11.7934
▁क्रमांक	-11.7934
वध	-11.7934
▁उभरे	-11.7937
▁शांतिपूर्ण	-11.7938
res	-11.794
▁सोते	-11.7941
▁प्रतिहार	-11.7942
▁कफ	-11.7943
▁ऐश	-11.7943
▁निश्	-11.7948
▁86.48	-11.7948
▁धब्बे	-11.7948
▁बटालियन	-11.7948
▁क्षुद्रग्रह	-11.7948
rm	-11.7951
les	-11.7955
▁ढंक	-11.7955
निर्णय	-11.7959
AC	-11.796
▁कहां	-11.7962
▁कलश	-11.7963
▁रोमांचक	-11.7964
▁नरक	-11.7964
br	-11.7967
▁सुत्त	-11.7967
▁इशारा	-11.7968
▁शौर्य	-11.7968
▁वायरलेस	-11.7969
▁संघटन	-11.7969
▁कावेरी	-11.797
▁बहुराष्ट्रीय	-11.7971
▁श्रेष्ठता	-11.7971
▁राजपरिवार	-11.7973
▁आभासी	-11.7973
▁सर्च	-11.7975
यज्ञ	-11.7978
▁दर्शा	-11.7979
▁उधम	-11.7979
par	-11.798
▁बूट	-11.7981
▁भग	-11.7982
दिल	-11.7983
नन्द	-11.7985
स्ते	-11.7985
जीन	-11.7986
▁वेंकट	-11.7986
▁छान	-11.7988
▁ऐल्यूमिनियम	-11.7988
▁मेमोरियल	-11.7988
▁नम्बर	-11.7989
▁प्रादेशिक	-11.799
ंटे	-11.7991
स्टोक	-11.7994
▁पकाने	-11.7995
▁ad	-11.7996
▁विद्य	-11.7996
रोड	-11.7996
श्रेणी	-11.7998
▁Si	-11.7999
सटन	-11.7999
tro	-11.7999
एट	-11.8002
विनाशकारी	-11.8002
long	-11.8005
क्शन	-11.8006
शरण	-11.8007
▁संवहन	-11.8009
▁हस्तशिल्प	-11.8009
▁some	-11.8009
▁राजेश	-11.8011
▁क्लै	-11.8011
त्या	-11.8014
यौ	-11.8014
▁पार्थ	-11.8016
▁बुर्ज	-11.8016
+2	-11.8018
▁महान्	-11.8018
IS	-11.802
निर्भर	-11.802
▁शासकीय	-11.8023
▁उलझ	-11.8023
षित	-11.8025
ेटेड	-11.8025
▁बंटा	-11.8026
क्के	-11.8028
ुप	-11.8029
▁सब्जियों	-11.8029
▁रजिस्टर	-11.8029
▁पारस	-11.803
रोज़	-11.8035
▁धोनी	-11.8037
यद	-11.804
उन्होंने	-11.804
▁आयत	-11.8041
▁जिन्हे	-11.8042
▁सरदारों	-11.8044
लोचन	-11.8046
लाय	-11.8046
▁ऐक्ट	-11.8047
▁बॉयल	-11.8049
▁इन्टरनेट	-11.8049
▁ड्रीम	-11.8049
▁गैलियम	-11.8049
▁स्टार्च	-11.805
चेतना	-11.8051
पन्न	-11.8052
▁उठने	-11.8054
▁दिवा	-11.8059
▁बिकने	-11.8061
▁मेह	-11.8063
तुर्क	-11.8064
ल्लि	-11.8064
▁उम्मीदवारों	-11.8066
▁जिज्ञासा	-11.8069
▁त्रिपाठी	-11.8069
▁पुनरावृत्ति	-11.8069
▁मुहैया	-11.8069
▁ग्रा	-11.807
▁Bo	-11.807
▁ब्राग	-11.8071
▁अमान	-11.8071
▁Bay	-11.8071
▁विभिन्	-11.8073
थान	-11.8074
▁प्रतिमान	-11.8076
▁घटती	-11.8076
▁दवाएं	-11.8077
▁नैनो	-11.8077
सरकारी	-11.8077
यात	-11.8078
क्लो	-11.8079
▁मिलेगी	-11.808
ाती	-11.8081
▁जिमी	-11.8082
स्तंभ	-11.8083
▁जहाज़	-11.8084
नवेल	-11.8084
▁गत	-11.8085
▁रिस	-11.8086
▁आसमान	-11.8088
▁नासिक	-11.8089
▁प्रत्यारोपण	-11.809
▁महाकल्प	-11.8092
▁स्टेन	-11.8093
मुल्ला	-11.8093
माई	-11.8093
▁उत्कर्ष	-11.8095
किर	-11.8098
क्षम	-11.81
लक्ष्मी	-11.8101
▁स्वदेश	-11.8103
▁श्रृंखलाओं	-11.8104
▁परदे	-11.8104
▁मारक	-11.8105
▁उर्वर	-11.8106
▁विलायक	-11.811
▁खतरों	-11.811
▁करवाई	-11.8111
पोट	-11.8112
▁सिखाया	-11.8112
▁मातृवंश	-11.8113
न्नी	-11.8114
▁1861	-11.8115
डक	-11.8115
▁आवेग	-11.8117
ांस	-11.8119
स्वा	-11.8122
3°	-11.8122
नाडा	-11.8122
▁वाइड	-11.8123
▁साध्य	-11.8123
ner	-11.8125
▁आबाद	-11.8126
▁बाप	-11.8127
▁उखाड़	-11.813
▁प्रणालियाँ	-11.813
▁मनोनीत	-11.813
cent	-11.8131
▁जामनगर	-11.8131
ms	-11.8132
▁जुडा	-11.8132
कोष	-11.8132
▁सीढ़ी	-11.8134
पर्ण	-11.8135
पंथी	-11.8136
▁z	-11.8137
▁खींचा	-11.8137
▁साहसिक	-11.8138
बर्म	-11.8138
दंड	-11.8139
▁Man	-11.8139
▁बूंद	-11.814
▁लीन	-11.814
▁राधाकृष्णन	-11.8142
▁1200	-11.8142
▁बडे	-11.8144
▁श्लोकों	-11.8144
▁पहुंचता	-11.8145
▁No	-11.815
▁ऐंडरसन	-11.815
▁दक्खिन	-11.815
▁पर्यवेक्षक	-11.815
▁कृत्यों	-11.8151
▁प्रशासित	-11.8152
डेम	-11.8152
▁अधिकारिक	-11.8152
▁यादगार	-11.8152
▁अधिकरण	-11.8152
▁कीर्तिमान	-11.8154
chi	-11.8154
▁वविद्यालय	-11.8155
पाली	-11.8155
▁बीजगणित	-11.8157
▁जूझ	-11.8157
▁कटु	-11.8161
▁डी॰	-11.8161
▁आईं	-11.8162
▁भावनगर	-11.8163
▁निगमों	-11.8164
▁शोधन	-11.8166
ोग्राफी	-11.8167
▁नंदा	-11.8167
▁शाद	-11.8169
जगह	-11.8169
▁विखंडन	-11.8171
▁तव	-11.8172
▁चालित	-11.8172
▁अगरतला	-11.8172
सिट	-11.8173
▁पटनायक	-11.8173
▁सिक्ख	-11.8174
▁चिह्नों	-11.8174
▁चरित	-11.8175
भवन	-11.8175
▁क्वे	-11.8177
▁30%	-11.8177
▁बारूद	-11.8178
▁खेली	-11.8179
sp	-11.8179
▁1815	-11.818
▁मनोज	-11.8181
---	-11.8181
ीर	-11.8182
▁राशियों	-11.8183
▁पते	-11.8185
sy	-11.8188
▁they	-11.8188
▁चढ़ने	-11.8189
▁इम्फाल	-11.8191
▁गुयाना	-11.8191
▁अंकेक्षण	-11.8192
▁बैरी	-11.8194
▁नेल्सन	-11.8195
▁पहन	-11.8195
▁सबका	-11.8197
▁स्वायत्तता	-11.8199
▁माध्यमों	-11.8201
बाइट	-11.8202
▁हरेक	-11.8204
▁विकल्पों	-11.8205
▁फतेह	-11.8206
day	-11.8206
जनन	-11.8208
ंव	-11.8209
▁प्लेटो	-11.8212
▁लूथर	-11.8212
▁वलय	-11.8213
▁जनजातीय	-11.8214
▁कल्कि	-11.8214
दायी	-11.8216
▁वपूर्ण	-11.8216
▁बल्लेबाज़	-11.8218
▁सूती	-11.822
क्रि	-11.8221
▁अफसर	-11.8222
▁मोर्चे	-11.8223
शुल्क	-11.8226
णे	-11.8227
▁कुर्द	-11.8229
yl	-11.8229
▁रौ	-11.823
▁21.	-11.8231
▁कूच	-11.8231
▁हीमोग्लोबिन	-11.8232
▁अल्मोडा	-11.8232
▁सॉफ़्टवेयर	-11.8232
▁कज़ाख़	-11.8233
▁कस्टम	-11.8233
बियन	-11.8234
▁पद्मश्री	-11.8235
▁अन्तरराष्ट्रीय	-11.8235
ग्रंथि	-11.8236
त्थ	-11.8237
लॉजी	-11.8238
▁इंजीनियरों	-11.8239
SA	-11.8241
▁मारकर	-11.8241
▁Cl	-11.8246
अक	-11.8246
▁दिलचस्प	-11.8246
▁कृ	-11.8247
▁20,000	-11.825
cc	-11.825
▁प्रभा	-11.825
▁विभिन्नता	-11.8251
▁विश्वामित्र	-11.8253
▁बलूचिस्तान	-11.8253
▁बर्बाद	-11.8254
बंधु	-11.8255
ase	-11.8256
▁25%	-11.8256
▁विक्रेताओं	-11.8258
▁पालक	-11.8259
▁जब्त	-11.826
▁बॉडी	-11.8262
▁व्यवहारिक	-11.8263
▁यांग	-11.8264
बहुत	-11.8265
tu	-11.8265
1.1	-11.8265
ीया	-11.8266
.3%	-11.8269
▁220	-11.827
▁Po	-11.827
रिए	-11.8271
कक्ष	-11.8271
▁सैंड	-11.8272
▁त्रिनिदाद	-11.8274
▁पैगम्बर	-11.8274
▁समझकर	-11.8274
▁शॉपिंग	-11.8275
▁अन्यत्र	-11.8275
▁कॉर्न	-11.8276
ld	-11.8276
▁डॉक्टरेट	-11.8277
▁टाल	-11.8278
▁नग	-11.8278
चिंत	-11.8281
▁किस्में	-11.8283
▁हिप	-11.8284
▁वेन	-11.8285
दृश्य	-11.8285
कॉक	-11.8287
फ़िल	-11.8288
व्या	-11.8288
म्बु	-11.8289
▁तंत्रों	-11.8292
हिन्दू	-11.8292
तिहाई	-11.8292
▁राजमहल	-11.8296
▁छपाई	-11.8299
▁मृतक	-11.83
▁मरे	-11.8301
▁सुदर्शन	-11.8301
▁अफ	-11.8303
नियर	-11.8303
▁रसायनों	-11.8303
▁देवकी	-11.8304
▁बॉब	-11.8304
▁70%	-11.8305
आज	-11.8306
कोन	-11.8308
▁हाय	-11.8308
▁इल्	-11.8308
ब्रेंट	-11.8309
क्साइड	-11.831
वण	-11.8311
▁विध्वंस	-11.8311
हिलिंग	-11.8311
पृथ्वी	-11.8311
▁सदनों	-11.8312
▁चलाये	-11.8313
▁संदेशों	-11.8313
▁सांप्रदायिक	-11.8314
▁क्रियान्वयन	-11.8315
▁चतुर्वेदी	-11.8315
▁पर्यवेक्षण	-11.8315
▁बोत्सवाना	-11.8315
▁बल्लभ	-11.8315
▁मॉड्यूल	-11.8315
▁तख़्त	-11.8315
▁विनोबा	-11.8315
▁धमनियों	-11.8315
▁मैत्री	-11.8316
वेम्बली	-11.8316
▁ग्राफिक्स	-11.8322
▁km	-11.8323
▁गायों	-11.8323
-9	-11.8325
▁बंदरगाहों	-11.8329
▁रीड	-11.833
वों	-11.8331
ॉड	-11.8334
▁विवरणों	-11.8334
▁कार्यक्षेत्र	-11.8335
▁शताब्	-11.8335
▁शॉर्ट	-11.8337
सोम	-11.8339
ूक	-11.834
▁बैंग	-11.8341
दाई	-11.8342
▁चीड़	-11.8343
▁उभरते	-11.8344
▁छठा	-11.8344
▁up	-11.8345
▁फिजी	-11.8346
▁जिनपर	-11.8349
ome	-11.8352
▁चलाना	-11.8353
▁पढ	-11.8355
▁स्वार्थ	-11.8355
▁विश्वभर	-11.8356
▁two	-11.8357
▁एविएशन	-11.8357
▁फिलहाल	-11.8357
▁पुतिन	-11.8357
▁सिरदर्द	-11.8357
▁बर्दी	-11.836
▁शीघ्रता	-11.836
▁प्रखर	-11.836
गपुर	-11.8362
▁चतुर्	-11.8363
▁पठन	-11.8365
▁अहीर	-11.8367
▁जीविका	-11.837
▁आक	-11.837
▁जुडी	-11.8371
▁बेड	-11.8372
▁प्रोट	-11.8375
▁टेन	-11.8376
▁ख़ैबर	-11.8378
▁अकादमिक	-11.8378
▁अनूदित	-11.8378
▁कुवैत	-11.8378
प्रमुख	-11.8378
▁मातृभूमि	-11.8378
▁ISO	-11.8379
स्टीन	-11.8379
▁गुरखा	-11.8379
▁इला	-11.8381
▁अपॉन	-11.8381
▁गाये	-11.8386
▁02	-11.839
ादित्य	-11.8392
▁माध्य	-11.8395
▁लिय	-11.8397
▁डेस्कटॉप	-11.8399
▁सफदरजंग	-11.8399
▁सीईओ	-11.8399
▁स्तनधारियों	-11.8399
▁वृंदावन	-11.8399
▁उपासक	-11.8399
▁न्यायमूर्ति	-11.84
▁बेकर	-11.84
नेशिया	-11.8401
▁जफर	-11.8402
▁सांसदों	-11.8404
▁फ्लाइट	-11.8405
▁नोड	-11.8406
▁प्रॉ	-11.8407
▁अम्मा	-11.841
▁ड्रे	-11.8412
ल्या	-11.8413
▁ग्रांड	-11.8413
काट	-11.8417
▁1850	-11.8417
▁ढके	-11.8418
▁धम्म	-11.8419
▁शिवजी	-11.842
▁Republic	-11.842
▁इज़रायल	-11.842
▁उभय	-11.842
▁कहलाए	-11.842
▁मेड	-11.8422
▁मूर्तिकला	-11.8424
आकृति	-11.8424
▁फिन	-11.8426
▁मैक्	-11.8426
▁5%	-11.843
▁वैधता	-11.843
तुम	-11.8434
▁बकरी	-11.8439
क्वा	-11.844
▁तर्ज	-11.8441
▁आणविक	-11.8441
▁ऊर्ध्वाधर	-11.8441
▁टेलिफोन	-11.8441
▁ब्लेयर	-11.8441
धीर	-11.8442
वायु	-11.8444
▁),	-11.8444
▁दिलाया	-11.8445
नोर	-11.8446
▁प्रोफ़ेसर	-11.8449
▁अखबारों	-11.8449
तिथि	-11.845
चारी	-11.845
बन्द	-11.845
ब्यू	-11.8451
▁सितारा	-11.8451
▁ममता	-11.8451
107	-11.8451
ग्रंथों	-11.8452
बोन	-11.8454
सीम	-11.8454
ट्रॉ	-11.8454
▁व्यवसायी	-11.8455
सिव	-11.8456
ल्लु	-11.8458
मुझे	-11.8461
रियस	-11.8461
▁सिलिकॉन	-11.8462
पल्लि	-11.8463
▁राजपूताना	-11.8464
▁29.	-11.8466
्जे	-11.847
ans	-11.8472
▁आरा	-11.8472
▁14.	-11.8474
क़ु	-11.8475
▁कूप	-11.8475
▁मानों	-11.8476
चन्द	-11.8478
्यूट	-11.848
▁उर्फ	-11.848
ोजी	-11.848
शोध	-11.8482
▁यादृच्छिक	-11.8482
▁मानवाधिकार	-11.8483
▁फिलीपींस	-11.8483
▁रिचार्डस	-11.8483
▁रुकावट	-11.8483
▁रहनेवाले	-11.8483
▁गूढ़	-11.8484
▁तादाद	-11.8484
टीन	-11.8485
जेंट	-11.849
पाई	-11.849
▁98	-11.849
▁आलोक	-11.8492
lic	-11.8492
▁भगा	-11.8492
▁वर्षावन	-11.8493
्गा	-11.8493
▁समीर	-11.8494
लिब	-11.8496
▁03	-11.8496
र्सन	-11.85
▁सार्वभौम	-11.8502
▁विघटित	-11.8504
▁रुझान	-11.8504
▁स्नायु	-11.8504
▁ख्वाजा	-11.8505
▁ऋषिकेश	-11.8505
▁शल्क	-11.8505
▁पढ़ी	-11.8505
▁मार्वल	-11.8505
▁विला	-11.8507
▁हालात	-11.8509
▁ब्यू	-11.851
▁चीज़ों	-11.8515
su	-11.8516
कारा	-11.8516
▁हस्तियों	-11.8516
▁अकार	-11.8519
शम	-11.852
ार्थी	-11.8522
BS	-11.8523
▁निरा	-11.8524
मन्दिर	-11.8525
▁निष्कासन	-11.8525
▁प्रणालियां	-11.8525
▁प्रागैतिहासिक	-11.8525
▁काॅमिक्स	-11.8525
▁ऑब्जेक्ट	-11.8525
▁गरिमा	-11.8525
▁संभल	-11.8525
▁अंधविश्वास	-11.8525
रिल	-11.8526
▁किराए	-11.8526
▁कुंडल	-11.8527
▁कॉर्नेल	-11.8527
▁गतिविधियां	-11.8528
▁नीली	-11.8528
▁कप्तानी	-11.8529
▁टेम्स	-11.8531
▁पहाड़ियाँ	-11.8532
िअस	-11.8533
वाड़ी	-11.8533
▁कार्यप्रणाली	-11.8533
▁विलीन	-11.8534
▁क्रियाशील	-11.8534
▁प्रबंधित	-11.8535
▁स्टाइल	-11.8536
▁बराबरी	-11.8536
▁बेग	-11.8537
▁मिश्रधातु	-11.8542
ाणी	-11.8545
क्कुर	-11.8546
▁सिलसिला	-11.8546
▁फेसबुक	-11.8546
▁हथ	-11.8546
▁will	-11.8547
▁भट	-11.8548
▁नवाचार	-11.8549
महल	-11.8549
▁प्रतिभूति	-11.855
▁5,000	-11.8551
▁वृहद	-11.8551
पट्टी	-11.8554
▁नोक	-11.8554
▁सिरा	-11.8557
▁पढ़ना	-11.8557
▁बाघों	-11.8558
▁उदासीन	-11.8559
▁भाषावैज्ञानिक	-11.8559
▁हैदर	-11.8564
डस	-11.8564
▁मेसोपोटामिया	-11.8568
▁छात्रावास	-11.8568
▁ग्रसित	-11.8568
विदेश	-11.8571
ale	-11.8571
▁सदिश	-11.8572
▁दीन	-11.8573
जगत	-11.8574
▁झुका	-11.8575
हाउंस	-11.8575
▁कीनिया	-11.8576
▁79.	-11.8577
▁अज्ञान	-11.8581
▁दोहरे	-11.8581
सिम	-11.8581
▁list	-11.8582
▁नवरात्रि	-11.8584
▁क्री	-11.8586
▁नोर्	-11.8586
नेपाल	-11.8587
▁धोखाधड़ी	-11.8589
▁निर्वासित	-11.8589
▁वायसराय	-11.8589
▁हमलावर	-11.8589
▁जेरी	-11.859
ric	-11.859
▁प्रभाकर	-11.859
!"	-11.8591
▁त्यागपत्र	-11.8593
▁दिला	-11.8597
SO	-11.8597
▁जायें	-11.8598
पत्त	-11.86
सॉफ्ट	-11.8601
▁विकलांग	-11.8601
शिल्प	-11.8602
▁श्रेणियाँ	-11.8604
रॉम	-11.8606
शेष	-11.8607
▁उसमे	-11.8608
▁लाती	-11.861
▁दुरुपयोग	-11.861
▁प्लाज्मा	-11.861
▁स्वादिष्ट	-11.8611
विष्णु	-11.8611
▁पाण्डेय	-11.8611
▁पिस्टन	-11.8611
▁अवगत	-11.8611
फेल	-11.8613
सिस्ट	-11.8617
▁सडक	-11.8617
▁साहित्यकारों	-11.8618
▁दैवी	-11.8619
▁मेहराब	-11.8619
▁15.	-11.8624
▁रमेश	-11.8624
ेटा	-11.8626
▁रोमा	-11.8627
▁पैट	-11.8627
▁मेहर	-11.8627
क्षत्र	-11.8628
▁सरहद	-11.8628
▁किन्हीं	-11.8632
▁एंड्रयू	-11.8632
▁डेंगू	-11.8632
▁कॉलोनी	-11.8632
▁किशोरावस्था	-11.8632
▁यूईएफ	-11.8633
▁कोलम्बिया	-11.8633
▁इमाद	-11.8633
▁शोधकर्ता	-11.8634
▁कुंआ	-11.8635
▁नीलामी	-11.8637
▁1887	-11.8637
▁अख	-11.8637
्लिन	-11.8638
गाय	-11.8639
पहल	-11.864
▁क्रूर	-11.8641
ाओ	-11.8641
▁लिस्ट	-11.8642
ौत	-11.8643
▁गिरता	-11.8643
gi	-11.8644
ाईट	-11.8646
▁पूर्णता	-11.8647
▁सुगम	-11.8647
▁पिला	-11.8648
▁केंद्रक	-11.8651
ाग्र	-11.8652
▁दुल्हन	-11.8653
▁चुनौतियों	-11.8653
ative	-11.8654
▁रशीद	-11.8655
▁आकृष्ट	-11.8655
▁जहांगीर	-11.8656
खला	-11.8656
▁नतीजा	-11.8657
▁दोगुन	-11.8657
▁1856	-11.8659
▁New	-11.8659
▁विभ	-11.8659
▁पहुंचते	-11.866
पर्ट	-11.8661
▁म्यु	-11.8661
ट्रि	-11.8662
▁वाइस	-11.8663
▁अंधे	-11.8664
▁एम॰	-11.8666
ंटन	-11.8666
▁अंदाज	-11.867
900	-11.8672
▁अमूर्त	-11.8672
▁वर्दी	-11.8673
▁Duke	-11.8675
▁एथेंस	-11.8675
▁छु	-11.8675
▁बेलारूसी	-11.8675
▁अर्धचालक	-11.8675
▁यूनिक्स	-11.8676
▁यातना	-11.8676
्मर	-11.8678
अली	-11.8681
शल	-11.8682
▁विज	-11.8684
ाधिकारी	-11.8688
▁97	-11.8691
▁चिपक	-11.8692
▁आमिर	-11.8693
▁name	-11.8695
▁आच्छादित	-11.8696
▁उस्ताद	-11.8696
▁टिहरी	-11.8697
▁क्रियान्वित	-11.8697
▁अरावली	-11.8698
▁नारे	-11.8698
▁पनामा	-11.8699
▁यदा	-11.8699
▁स्नो	-11.8699
▁तिथियाँ	-11.87
ik	-11.8701
ावरण	-11.8701
▁ड्यू	-11.8702
मेरे	-11.8702
▁ओमान	-11.8703
▁निर्णयों	-11.8703
▁ग्रंथियों	-11.8705
▁स्लाव	-11.8705
▁रेखीय	-11.8707
▁स्थलीय	-11.8708
▁नॉन	-11.8711
स्ट्रैट	-11.8711
▁कल्	-11.8713
ling	-11.8716
सली	-11.8718
▁आर्किमिडीज़	-11.8718
art	-11.8718
स्सी	-11.8719
▁कोलो	-11.8719
▁आपरेशन	-11.8721
▁फ्रंट	-11.8722
▁1893	-11.8723
▁चमकदार	-11.8723
▁प्रशासकीय	-11.8724
घु	-11.8724
▁उद्धार	-11.8724
ward	-11.8727
घूर्ण	-11.8727
थ्य	-11.873
▁हेस	-11.8732
▁बेलन	-11.8733
▁शैलों	-11.8734
ुएल	-11.8735
ाध्यक्ष	-11.8736
▁तुम्हारे	-11.8737
▁j	-11.8738
▁स्टो	-11.8738
▁अब्राहम	-11.8739
▁स्वैच्छिक	-11.8739
▁सिनेमाघरों	-11.8739
lin	-11.874
नाथन	-11.8741
.9%	-11.8741
▁सारांश	-11.8741
▁छिप	-11.8742
प्राय	-11.8742
▁रेशे	-11.8743
▁दिखलाई	-11.8743
▁थर	-11.8744
▁गुआ	-11.8744
णीय	-11.8745
▁फिल्मांकन	-11.8745
▁स्तोत्र	-11.8745
▁हीलियम	-11.8746
▁जटिलताओं	-11.8746
▁संस्थागत	-11.8747
ईलिंग	-11.8748
▁वी॰	-11.8748
▁तर्कशास्त्र	-11.8748
ियार	-11.8749
▁इराक़	-11.8753
.25	-11.8755
▁प्रक्रियाएं	-11.8758
तला	-11.8759
कुश	-11.8759
▁फ़ॉ	-11.8761
▁प्रीमियम	-11.8761
▁बाईं	-11.8761
▁फहरा	-11.8762
▁सूर्योदय	-11.8762
ade	-11.8763
▁अण्डमान	-11.8763
▁निशा	-11.8765
मुर	-11.8766
टस	-11.8769
▁बहार	-11.8769
▁बैनर	-11.877
▁फलतः	-11.8771
▁बजा	-11.8772
ाक्ष	-11.8772
▁संभावनाओं	-11.8774
▁नकदी	-11.8774
uc	-11.8779
▁कतर	-11.878
गाड	-11.878
▁रामगढ़	-11.8781
▁pa	-11.8782
▁मिर्ज़ा	-11.8783
▁राँची	-11.8783
▁ओबामा	-11.8783
▁फ्लाइंग	-11.8783
.00	-11.8783
रिड	-11.8784
▁लेग	-11.8784
▁उड़ानें	-11.8785
कुशल	-11.8788
प्राकृतिक	-11.8788
रॉ	-11.8788
▁पर्दा	-11.8788
▁तेरे	-11.8795
400	-11.8796
▁जीनों	-11.8797
▁अनाथ	-11.8797
माद	-11.8803
▁बर्क	-11.8803
िंग्टन	-11.8804
▁प्रबंधकों	-11.8804
▁इस्तांबुल	-11.8805
▁स्टर्लिंग	-11.8805
सम्	-11.8805
भु	-11.8806
▁पुनर्वास	-11.8806
म्पा	-11.8807
▁कलि	-11.8809
सिद्धान्त	-11.881
▁मी॰	-11.881
ॅक	-11.8812
सैनिक	-11.8813
रौ	-11.8814
कड	-11.8815
निक्स	-11.8816
फलक	-11.8816
▁प्रकाशीय	-11.8816
▁le	-11.8818
▁बसु	-11.882
▁कहावत	-11.882
▁बीट	-11.882
SC	-11.8822
ct	-11.8824
▁अफवाह	-11.8824
▁क़बीले	-11.8827
▁फ़्रिसियाई	-11.8827
▁सांसारिक	-11.8827
▁प्रणेता	-11.8827
▁विजुअल	-11.8827
बार्किंग	-11.8827
▁जिन्	-11.8828
ैड	-11.883
▁गेंदों	-11.8831
ूँगा	-11.8834
▁उनमे	-11.8834
नील	-11.8834
सिड	-11.8835
लिथ	-11.8836
ॉइड	-11.8836
▁इवान	-11.8841
शस्त्र	-11.8842
▁आर्यभट	-11.8844
▁अंतरण	-11.8844
तुर	-11.8846
PA	-11.8847
▁इकाइयाँ	-11.8848
▁मरणोपरांत	-11.8849
▁अनुसूची	-11.8849
▁बाक़ी	-11.8849
▁समायोजन	-11.885
TV	-11.885
स्या	-11.8851
▁रफ़ी	-11.8851
शक	-11.8851
संचार	-11.8851
▁यूनिवर्सल	-11.8852
▁विलंब	-11.8854
MA	-11.8855
वक	-11.8857
बार्न्स	-11.8859
▁कैलि	-11.8862
▁87	-11.8862
क्रमण	-11.8863
▁इसराइल	-11.8865
▁संतानों	-11.8866
▁दशाओं	-11.8867
▁लगेगा	-11.8868
▁औरंगज़ेब	-11.887
▁ताँबे	-11.887
▁पूँछ	-11.887
▁प्रोटोटाइप	-11.887
ेक्शन	-11.8872
▁लौटते	-11.8873
▁1899	-11.8876
▁सतहों	-11.8876
▁निरंकुश	-11.8883
iz	-11.8883
▁लॉग	-11.8884
▁निकालते	-11.8891
▁तांबे	-11.8892
▁एनिमेटेड	-11.8892
▁रीस	-11.8893
हारी	-11.8893
▁2500	-11.8893
▁सौम्य	-11.8894
▁शुरुवात	-11.8895
▁परोक्ष	-11.8895
▁शील	-11.8896
लीला	-11.8898
▁मोशन	-11.8898
अल्	-11.8899
▁सुगमता	-11.89
ाची	-11.8904
▁सड़	-11.8905
▁मैग्न	-11.8906
▁जोहान	-11.8907
▁पुस्तकालयों	-11.8907
▁वाक्यों	-11.8908
ham	-11.8908
सां	-11.8908
▁गोलियों	-11.891
▁एलजी	-11.8912
▁IV	-11.8913
▁पाउडर	-11.8914
▁बेल्लारी	-11.8914
▁कैपिटल	-11.8914
▁सिलिंडर	-11.8914
▁ज्योतिर्लिंग	-11.8915
▁द्रुत	-11.8915
▁आंकड़ा	-11.8915
▁धातुएँ	-11.8915
▁शाहरुख	-11.8915
▁विधायी	-11.8916
▁मंडी	-11.8916
▁शूद्र	-11.8916
क्यु	-11.8918
▁सपाट	-11.8918
▁फाल	-11.8919
शून्य	-11.8921
कोटि	-11.8924
▁गम	-11.8924
▁31.	-11.8925
दस	-11.8926
pt	-11.8926
▁क्रै	-11.8926
▁पर्यन्त	-11.8927
▁पहुच	-11.8929
जैक	-11.8932
ंबा	-11.8933
▁सहाय	-11.8934
▁जगदीश	-11.8936
▁डायोड	-11.8936
▁प्रक्षेपास्त्र	-11.8936
▁बुनाई	-11.8938
▁सम्भवतः	-11.8938
भ्र	-11.8939
▁ऐनी	-11.894
निश	-11.8943
▁हिरन	-11.8944
▁वॉर	-11.8945
▁भारतेंदु	-11.8945
ुइया	-11.8947
▁कबीलों	-11.8948
CO	-11.895
▁समे	-11.895
▁मेटल	-11.8953
तुंग	-11.8953
कारियों	-11.8954
▁निद्रा	-11.8955
▁एकाधिकार	-11.8955
▁दरबारी	-11.8956
टूर	-11.8956
विदों	-11.8958
▁ट्रिब्यून	-11.8959
▁उत्तरार्द्ध	-11.8959
▁दरभंगा	-11.8959
▁कॉपीराइट	-11.8959
▁अवरुद्ध	-11.8959
पल्ली	-11.8959
▁पृथक्करण	-11.8961
▁मिस्टर	-11.8961
▁Unit	-11.8961
इश	-11.8965
▁दयाल	-11.8966
▁शिथिल	-11.8968
हिं	-11.8969
▁ज़ु	-11.8969
▁पहुँचाया	-11.8974
साद	-11.8975
▁महानदी	-11.8977
▁भूगर्भ	-11.8977
▁अदालतों	-11.8981
▁कुषाण	-11.8981
▁दशमलव	-11.8981
▁कुख्यात	-11.8981
▁संस	-11.8982
बिक	-11.8982
▁दब	-11.8983
▁गिरते	-11.8983
▁पक्षपात	-11.8984
शिका	-11.8985
▁1891	-11.8985
,600	-11.8987
▁सूर्यास्त	-11.8987
▁कैमरे	-11.8987
4,000	-11.8995
▁टेक्स्ट	-11.8995
भौ	-11.8996
ल्डर	-11.8997
मारी	-11.8997
▁एडम्स	-11.8998
ढे	-11.9002
▁टुकड़ा	-11.9003
▁समाविष्ट	-11.9003
▁राखी	-11.9003
सिं	-11.9003
▁हराने	-11.9004
▁बहुमुखी	-11.9005
▁लोप	-11.9005
▁पीएचडी	-11.9005
▁सैदपुर	-11.9006
▁रोमांच	-11.9008
जों	-11.9009
▁Se	-11.9009
aj	-11.9012
_{2}	-11.9013
प्टर	-11.9016
▁नहरों	-11.9018
▁450	-11.9018
विषयक	-11.9021
▁पुर्व	-11.9022
▁मैड्रिड	-11.9025
▁ठंढ	-11.9025
मिनिस्टर	-11.9027
▁टीकाकरण	-11.9028
:50	-11.9028
▁एकदिवसीय	-11.9031
▁जमींदार	-11.9032
▁जासूसी	-11.9034
▁नाड़ी	-11.9034
▁अंडा	-11.9036
मां	-11.9038
mm	-11.9041
▁उत्कृष्टता	-11.9042
बेस	-11.9043
▁पत्रकारों	-11.9044
▁जाग	-11.9046
▁कैस्पियन	-11.9048
▁तंबाकू	-11.9048
▁तात्कालिक	-11.9048
▁GDP	-11.9048
▁क्लाइंट	-11.9048
▁कारगिल	-11.9049
▁बांगर	-11.9051
शियाना	-11.9052
लवा	-11.9054
▁मूसा	-11.9054
राल	-11.9055
▁रंगहीन	-11.9055
यं	-11.9056
▁विभेद	-11.9057
▁घिस	-11.9057
्यूल	-11.9058
▁इलेक्ट्रानिक	-11.9058
स्थली	-11.9059
ेण	-11.9062
▁बं	-11.9062
ेण्ट	-11.9062
मेव	-11.9066
form	-11.9069
▁स्वर्गीय	-11.9069
पैड	-11.9069
▁हैमिल्टन	-11.907
▁स्काई	-11.9071
▁वृत्ताकार	-11.9071
▁रसोई	-11.9072
▁1600	-11.9072
होल	-11.9073
▁साइमन	-11.9073
ew	-11.9075
विलास	-11.9076
▁क्लबों	-11.9079
▁भाट	-11.908
▁साड़ी	-11.9081
▁मिंग	-11.9081
▁जॉनसन	-11.9082
बाह	-11.9082
▁240	-11.9083
▁बढ़ाना	-11.9084
ज़ेन	-11.9085
rit	-11.9086
लिपि	-11.9089
▁विगत	-11.9089
र्टन	-11.9091
▁कौर	-11.9092
▁कैलिफ़ोर्निया	-11.9092
▁प्रोटेस्टेंट	-11.9092
▁हल्द्वानी	-11.9092
▁स्पिरिट	-11.9092
▁हिस्ट्री	-11.9093
▁ब्रह्मचर्य	-11.9093
▁जानकी	-11.9094
▁लाभप्रद	-11.9095
wi	-11.9095
▁बिरसा	-11.9095
▁बॉय	-11.91
▁जोरदार	-11.9101
घे	-11.9101
ोदय	-11.9101
▁खुलने	-11.9101
ound	-11.9102
▁निगल	-11.9102
▁मोस	-11.9105
▁60%	-11.9106
▁बर्ग	-11.9108
शोष	-11.911
▁संस्मरण	-11.9111
▁पाँचवीं	-11.9115
▁नजारा	-11.9115
▁पुस्तिका	-11.9115
वैल	-11.9115
▁वार्नर	-11.9115
▁फेयर	-11.9116
ल्फ़	-11.9119
▁मौरि	-11.9119
▁ग्राफिक	-11.912
निवेश	-11.912
▁सोपान	-11.9121
▁पितामह	-11.9122
ani	-11.9122
nc	-11.9123
▁बुद्धिमत्ता	-11.9124
्टिन	-11.9125
▁घुसपैठ	-11.9126
.8%	-11.9126
▁94	-11.9128
▁सरसों	-11.9131
लहर्स्ट	-11.9132
र्रा	-11.9132
▁शॉ	-11.9134
so	-11.9135
▁फ़ारस	-11.9135
▁सम्बोधित	-11.9137
▁खदेड़	-11.9137
▁दूषित	-11.9137
▁त्रिपुर	-11.9139
माण्ड	-11.9141
ns	-11.9143
▁कोंकणी	-11.9143
▁बढती	-11.9144
▁1848	-11.9145
▁हल्	-11.9146
▁मोटर्स	-11.9146
▁संघों	-11.9147
6°	-11.9147
▁हेलेना	-11.9147
सूचना	-11.9148
▁अधीनता	-11.9148
-14	-11.9148
्लू	-11.9149
▁रैली	-11.9151
ूम	-11.9157
▁मतदाता	-11.9159
ज़ान	-11.9159
▁उतारा	-11.916
▁बार्सिलोना	-11.916
▁मारीशस	-11.916
▁पिथौरागढ़	-11.9161
▁दायित्वों	-11.9162
ोन्मुख	-11.9162
▁फिल्मफेयर	-11.9162
▁विकासवादी	-11.9162
अपनी	-11.9163
▁बैरम	-11.9163
▁स्टार्क	-11.9169
▁ज्ञाता	-11.9171
पें	-11.9176
ेसी	-11.9177
▁संगीतकारों	-11.9178
किरण	-11.9181
▁प्रायोजक	-11.9183
▁स्त्रियाँ	-11.9183
▁क्रान्तिकारियों	-11.9183
▁रांची	-11.9183
▁द्वंद्व	-11.9183
▁एयरबस	-11.9184
▁मुखर	-11.9184
▁तस्वीरों	-11.9184
लाप	-11.9187
चिकित्सक	-11.9191
▁बॉस	-11.9191
ally	-11.9191
लियम	-11.9193
▁क्रोधित	-11.9195
▁हेन	-11.9195
▁मरा	-11.9196
▁नर्स	-11.9196
्रेट	-11.9197
▁छोड़ना	-11.9197
▁बीबी	-11.9197
िडा	-11.9199
▁उपमा	-11.92
ेष	-11.9202
▁लोकमान्य	-11.9202
▁Ra	-11.9203
चेन	-11.9205
▁इन्फ्लूएंजा	-11.9205
▁परिचायक	-11.9205
▁छुटकारा	-11.9205
▁श्रावण	-11.9205
▁भिकियासै	-11.9205
▁मैनेजर	-11.9206
▁अंजलि	-11.9206
out	-11.9207
▁क्रिस्ट	-11.9208
▁दिखे	-11.9208
ong	-11.9209
▁पठान	-11.9209
▁सजातीय	-11.921
▁मिस्री	-11.921
▁दृष्ट	-11.9214
▁नियाम	-11.9214
्स्की	-11.9216
ह्र	-11.9217
▁बिताने	-11.922
रॉन	-11.9221
्रम	-11.9221
go	-11.9221
▁उदा	-11.9221
▁3,000	-11.9223
▁काव्यशास्त्र	-11.9224
▁मध्यस्थ	-11.9227
▁इजाजत	-11.9228
▁BBC	-11.9228
▁उल्टा	-11.923
▁भवानी	-11.923
▁राष्ट्रकूट	-11.923
▁सातवाहन	-11.923
▁विवाहित	-11.923
▁135	-11.923
ाउंड	-11.923
्यान	-11.9231
▁गोमती	-11.9231
वाज	-11.9233
▁वारिस	-11.9235
ode	-11.9236
▁कागज़	-11.9237
▁जमींदारों	-11.9238
▁शिक्षाओं	-11.924
नाद	-11.924
▁ट्रू	-11.924
right	-11.9242
▁बहू	-11.9243
sion	-11.9243
▁डाॅ	-11.9244
▁खंडहर	-11.9246
खरी	-11.9248
▁कुतुब	-11.925
▁एंटरटेनमेंट	-11.9251
▁टुकड़ी	-11.9251
▁किण्वन	-11.9251
▁आरेख	-11.9251
[...]
